{
  "version": "1.0",
  "truncation": null,
  "padding": null,
  "added_tokens": [
    {
      "id": 0,
      "content": "<|endoftext|>",
      "single_word": false,
      "lstrip": false,
      "rstrip": false,
      "normalized": false,
      "special": true
    }
  ],
  "normalizer": null,
  "pre_tokenizer": {
    "type": "ByteLevel",
    "add_prefix_space": false,
    "trim_offsets": true,
    "use_regex": true
  },
  "post_processor": null,
  "decoder": null,
  "model": {
    "type": "BPE",
    "dropout": null,
    "unk_token": "[UNK]",
    "continuing_subword_prefix": null,
    "end_of_word_suffix": null,
    "fuse_unk": false,
    "byte_fallback": false,
    "vocab": {
      "<|endoftext|>": 0,
      "!": 1,
      "\"": 2,
      "#": 3,
      "$": 4,
      "%": 5,
      "&": 6,
      "'": 7,
      "(": 8,
      ")": 9,
      "*": 10,
      "+": 11,
      ",": 12,
      "-": 13,
      ".": 14,
      "/": 15,
      "0": 16,
      "1": 17,
      "2": 18,
      "3": 19,
      "4": 20,
      "5": 21,
      "6": 22,
      "7": 23,
      "8": 24,
      "9": 25,
      ":": 26,
      ";": 27,
      "<": 28,
      "=": 29,
      ">": 30,
      "?": 31,
      "@": 32,
      "A": 33,
      "B": 34,
      "C": 35,
      "D": 36,
      "E": 37,
      "F": 38,
      "G": 39,
      "H": 40,
      "I": 41,
      "J": 42,
      "K": 43,
      "L": 44,
      "M": 45,
      "N": 46,
      "O": 47,
      "P": 48,
      "Q": 49,
      "R": 50,
      "S": 51,
      "T": 52,
      "U": 53,
      "V": 54,
      "W": 55,
      "X": 56,
      "Y": 57,
      "Z": 58,
      "[": 59,
      "\\": 60,
      "]": 61,
      "^": 62,
      "_": 63,
      "`": 64,
      "a": 65,
      "b": 66,
      "c": 67,
      "d": 68,
      "e": 69,
      "f": 70,
      "g": 71,
      "h": 72,
      "i": 73,
      "j": 74,
      "k": 75,
      "l": 76,
      "m": 77,
      "n": 78,
      "o": 79,
      "p": 80,
      "q": 81,
      "r": 82,
      "s": 83,
      "t": 84,
      "u": 85,
      "v": 86,
      "w": 87,
      "x": 88,
      "y": 89,
      "z": 90,
      "{": 91,
      "|": 92,
      "}": 93,
      "~": 94,
      "¡": 95,
      "¢": 96,
      "£": 97,
      "¤": 98,
      "¥": 99,
      "¦": 100,
      "§": 101,
      "¨": 102,
      "©": 103,
      "ª": 104,
      "«": 105,
      "¬": 106,
      "®": 107,
      "¯": 108,
      "°": 109,
      "±": 110,
      "²": 111,
      "³": 112,
      "´": 113,
      "µ": 114,
      "¶": 115,
      "·": 116,
      "¸": 117,
      "¹": 118,
      "º": 119,
      "»": 120,
      "¼": 121,
      "½": 122,
      "¾": 123,
      "¿": 124,
      "Â": 125,
      "Ã": 126,
      "Ä": 127,
      "Å": 128,
      "Æ": 129,
      "Ç": 130,
      "È": 131,
      "É": 132,
      "Ê": 133,
      "Ë": 134,
      "Ì": 135,
      "Í": 136,
      "Î": 137,
      "Ï": 138,
      "Ð": 139,
      "Ñ": 140,
      "Ò": 141,
      "Ó": 142,
      "Ô": 143,
      "Õ": 144,
      "Ö": 145,
      "×": 146,
      "Ø": 147,
      "Ù": 148,
      "Ú": 149,
      "Û": 150,
      "Ü": 151,
      "Ý": 152,
      "Þ": 153,
      "ß": 154,
      "à": 155,
      "á": 156,
      "â": 157,
      "ã": 158,
      "ä": 159,
      "å": 160,
      "æ": 161,
      "ç": 162,
      "è": 163,
      "é": 164,
      "ê": 165,
      "ë": 166,
      "ì": 167,
      "í": 168,
      "î": 169,
      "ï": 170,
      "ð": 171,
      "ó": 172,
      "ô": 173,
      "ĉ": 174,
      "Ċ": 175,
      "Ġ": 176,
      "Ģ": 177,
      "ģ": 178,
      "Ĥ": 179,
      "ĥ": 180,
      "Ħ": 181,
      "ħ": 182,
      "Ĩ": 183,
      "ĩ": 184,
      "Ī": 185,
      "ī": 186,
      "Ĭ": 187,
      "ĭ": 188,
      "Į": 189,
      "į": 190,
      "İ": 191,
      "ı": 192,
      "Ĳ": 193,
      "ĳ": 194,
      "Ĵ": 195,
      "ĵ": 196,
      "Ķ": 197,
      "ķ": 198,
      "ĸ": 199,
      "Ĺ": 200,
      "ĺ": 201,
      "Ļ": 202,
      "ļ": 203,
      "Ľ": 204,
      "ľ": 205,
      "Ŀ": 206,
      "ŀ": 207,
      "Ł": 208,
      "ł": 209,
      "Ń": 210,
      "Ġt": 211,
      "he": 212,
      "in": 213,
      "Ġa": 214,
      "er": 215,
      "on": 216,
      "Ġthe": 217,
      "re": 218,
      "an": 219,
      "or": 220,
      "en": 221,
      "at": 222,
      "ed": 223,
      "Ġo": 224,
      "st": 225,
      "al": 226,
      "Ġw": 227,
      "ar": 228,
      "it": 229,
      "Ġof": 230,
      "nd": 231,
      "Ġin": 232,
      "Ġs": 233,
      "es": 234,
      "Ġf": 235,
      "is": 236,
      "Ġc": 237,
      "Ġb": 238,
      "ic": 239,
      "Ġp": 240,
      "ing": 241,
      "Ġand": 242,
      "as": 243,
      "ion": 244,
      "ro": 245,
      "le": 246,
      "ĠS": 247,
      "Ġto": 248,
      "Ġm": 249,
      "Ġd": 250,
      "ĠC": 251,
      "ou": 252,
      "ĠA": 253,
      "il": 254,
      "Ġ1": 255,
      "ent": 256,
      "Ġh": 257,
      "ĠT": 258,
      "am": 259,
      "ĠM": 260,
      "om": 261,
      "el": 262,
      "ol": 263,
      "Ġre": 264,
      "Ġ(": 265,
      "ct": 266,
      "ĠB": 267,
      "Ġl": 268,
      "ad": 269,
      "ĠP": 270,
      "ur": 271,
      "et": 272,
      "ch": 273,
      "iv": 274,
      "Ġ2": 275,
      "ers": 276,
      "ĠH": 277,
      "ation": 278,
      "Ġwas": 279,
      "Ġn": 280,
      "Ġe": 281,
      "ig": 282,
      "ĠI": 283,
      "ir": 284,
      "id": 285,
      "ot": 286,
      "Ġth": 287,
      "ĠR": 288,
      "us": 289,
      "ce": 290,
      "Ġfor": 291,
      "Ġon": 292,
      "ay": 293,
      "ĠD": 294,
      "ly": 295,
      "im": 296,
      "ĠL": 297,
      "ist": 298,
      "Ġ19": 299,
      "ut": 300,
      "ĠF": 301,
      "Ġis": 302,
      "ra": 303,
      "Ġg": 304,
      "ĠG": 305,
      "Ġas": 306,
      "ow": 307,
      "em": 308,
      "ĠN": 309,
      "un": 310,
      "ĠThe": 311,
      "th": 312,
      "ĠW": 313,
      "Ġ20": 314,
      "ith": 315,
      "Ġbe": 316,
      "and": 317,
      "Ġst": 318,
      "her": 319,
      "ter": 320,
      "ul": 321,
      "âĢ": 322,
      "ĠJ": 323,
      "Ġwith": 324,
      "ĠE": 325,
      "Ġby": 326,
      "Ġal": 327,
      "ag": 328,
      "um": 329,
      "os": 330,
      "rom": 331,
      "op": 332,
      "ac": 333,
      "ver": 334,
      "'s": 335,
      "Ġat": 336,
      "ri": 337,
      "Ġwh": 338,
      "ĠO": 339,
      "Ġan": 340,
      "oc": 341,
      "Ġde": 342,
      "Ġcon": 343,
      "ian": 344,
      "Ġfrom": 345,
      "Ġhe": 346,
      "âĢĵ": 347,
      "ĠK": 348,
      "ia": 349,
      "Ġv": 350,
      "ain": 351,
      "ber": 352,
      "Ġthat": 353,
      "all": 354,
      "ity": 355,
      "od": 356,
      "res": 357,
      "ies": 358,
      "est": 359,
      "Ġ\"": 360,
      "ĠU": 361,
      "av": 362,
      "art": 363,
      "Ġcom": 364,
      "ab": 365,
      "if": 366,
      "ate": 367,
      "Ġpro": 368,
      "ill": 369,
      "up": 370,
      "ew": 371,
      "ort": 372,
      "Ġse": 373,
      "ard": 374,
      "ud": 375,
      "pe": 376,
      "ces": 377,
      "ĠSt": 378,
      "Ġpl": 379,
      "19": 380,
      "Ġit": 381,
      "ak": 382,
      "ub": 383,
      "igh": 384,
      "ip": 385,
      "Ġhis": 386,
      "se": 387,
      "ore": 388,
      "ich": 389,
      "ov": 390,
      "ast": 391,
      "nt": 392,
      "Ġor": 393,
      "ld": 394,
      "ap": 395,
      "qu": 396,
      "ated": 397,
      "ant": 398,
      "ary": 399,
      "00": 400,
      "ment": 401,
      "ish": 402,
      "ĠCh": 403,
      "ĠIn": 404,
      "The": 405,
      "ge": 406,
      "fer": 407,
      "mer": 408,
      "ive": 409,
      "Ġr": 410,
      "ĠV": 411,
      "og": 412,
      "our": 413,
      "ong": 414,
      "Ġ201": 415,
      "ial": 416,
      "ug": 417,
      "Ġ|": 418,
      "Ġch": 419,
      "Ġare": 420,
      "end": 421,
      "ine": 422,
      "und": 423,
      "Ġex": 424,
      "ks": 425,
      "ere": 426,
      "ell": 427,
      "ust": 428,
      "ear": 429,
      "ep": 430,
      "ction": 431,
      "ame": 432,
      "ord": 433,
      "so": 434,
      "Ġ200": 435,
      "ire": 436,
      "Ġ||": 437,
      "Ġwere": 438,
      "uc": 439,
      "ure": 440,
      "ran": 441,
      "ight": 442,
      "ical": 443,
      "Ġle": 444,
      "ost": 445,
      "ie": 446,
      "ue": 447,
      "),": 448,
      "ign": 449,
      "ĠHe": 450,
      "ĠĊ": 451,
      "Ġwhich": 452,
      "Ġalso": 453,
      "ĠUn": 454,
      "are": 455,
      "ess": 456,
      "ric": 457,
      "Ġcomp": 458,
      "cl": 459,
      "Ġsh": 460,
      "ther": 461,
      "rit": 462,
      "Ġplay": 463,
      "Ġy": 464,
      "Ġk": 465,
      "Ġ18": 466,
      "ff": 467,
      "ry": 468,
      "ass": 469,
      "age": 470,
      "irst": 471,
      "man": 472,
      "port": 473,
      "feren": 474,
      "ĠâĢĵ": 475,
      "ount": 476,
      "ition": 477,
      "ous": 478,
      "Re": 479,
      "Ġun": 480,
      "Ġ3": 481,
      "ork": 482,
      "te": 483,
      "iz": 484,
      "ack": 485,
      "ts": 486,
      "Ġar": 487,
      "erv": 488,
      "ond": 489,
      "ational": 490,
      "20": 491,
      "Ġcl": 492,
      "Ġhad": 493,
      "ide": 494,
      "hed": 495,
      "Ġte": 496,
      "ĠY": 497,
      "per": 498,
      "tern": 499,
      "ok": 500,
      "land": 501,
      "ang": 502,
      "ory": 503,
      "ations": 504,
      "ican": 505,
      "ice": 506,
      "Ġnot": 507,
      "Ġhas": 508,
      "ne": 509,
      "pl": 510,
      "Ġfirst": 511,
      "ng": 512,
      "ave": 513,
      "own": 514,
      "ferences": 515,
      "ome": 516,
      "fter": 517,
      "ĠIt": 518,
      "Ġwhe": 519,
      "Ġro": 520,
      "ib": 521,
      "ater": 522,
      "orn": 523,
      "amp": 524,
      "Ġcont": 525,
      "References": 526,
      "Ġus": 527,
      "ens": 528,
      "wo": 529,
      "ach": 530,
      "ĠAl": 531,
      "ph": 532,
      "ite": 533,
      "In": 534,
      "ĠTh": 535,
      "Ġad": 536,
      "ree": 537,
      "ates": 538,
      "Ġ199": 539,
      "ions": 540,
      "ult": 541,
      "ilm": 542,
      "Ġpart": 543,
      "ople": 544,
      "ited": 545,
      "ime": 546,
      "Ġwho": 547,
      "Ġtheir": 548,
      "ru": 549,
      "Ġint": 550,
      "Ġap": 551,
      "ĠAr": 552,
      "Ġres": 553,
      "Ġj": 554,
      "aw": 555,
      "Ġits": 556,
      "ound": 557,
      "Ġher": 558,
      "ember": 559,
      "ath": 560,
      "ool": 561,
      "ubl": 562,
      "ke": 563,
      "ĠRe": 564,
      "merican": 565,
      "ĠMar": 566,
      "ivers": 567,
      ").": 568,
      "out": 569,
      "pt": 570,
      "over": 571,
      "ace": 572,
      "ild": 573,
      "Ġab": 574,
      "ors": 575,
      "iss": 576,
      "Ġbut": 577,
      "eople": 578,
      "clud": 579,
      "oll": 580,
      "Ġac": 581,
      "Ġyear": 582,
      "Ġone": 583,
      "inal": 584,
      "ĠLe": 585,
      "ile": 586,
      "ball": 587,
      "ugh": 588,
      "Ġ4": 589,
      "old": 590,
      "Ġ-": 591,
      "ade": 592,
      "ould": 593,
      "Ġper": 594,
      "Ġrec": 595,
      "ual": 596,
      "ĠNew": 597,
      "ress": 598,
      "Ġag": 599,
      "for": 600,
      "oot": 601,
      "ents": 602,
      "ence": 603,
      "Ġman": 604,
      "hip": 605,
      "wn": 606,
      "uring": 607,
      "Ġsc": 608,
      "les": 609,
      "act": 610,
      "ward": 611,
      "oy": 612,
      "Ġtwo": 613,
      "Ġhave": 614,
      "Ġinclud": 615,
      "oin": 616,
      "Ġbec": 617,
      "ons": 618,
      "chool": 619,
      "ss": 620,
      "ased": 621,
      "ect": 622,
      "Ġdes": 623,
      "io": 624,
      "Ġthis": 625,
      "Ġen": 626,
      "Ġall": 627,
      "vel": 628,
      "ĠDe": 629,
      "ob": 630,
      "we": 631,
      "one": 632,
      "ied": 633,
      "ern": 634,
      "ings": 635,
      "ail": 636,
      "ark": 637,
      "ĠCom": 638,
      "ĠĠ": 639,
      "Ġ198": 640,
      "ase": 641,
      "Ġfilm": 642,
      "Ġcomm": 643,
      "Ġbeen": 644,
      "ind": 645,
      "gh": 646,
      "Ġother": 647,
      "urn": 648,
      "ics": 649,
      "Ġ5": 650,
      "ee": 651,
      "ted": 652,
      "outh": 653,
      "Ġdis": 654,
      "Ġafter": 655,
      "uch": 656,
      "Ġim": 657,
      "ely": 658,
      "ft": 659,
      "ral": 660,
      "gan": 661,
      "able": 662,
      "ished": 663,
      "red": 664,
      "oh": 665,
      "Ġoff": 666,
      "ah": 667,
      "ton": 668,
      "ec": 669,
      "Ġsp": 670,
      "ury": 671,
      "ren": 672,
      "cted": 673,
      "iversity": 674,
      "ance": 675,
      "Ġlin": 676,
      "Ġup": 677,
      "Ġout": 678,
      "orld": 679,
      "ood": 680,
      "ĠAmerican": 681,
      "18": 682,
      "ision": 683,
      "Ġover": 684,
      "Ġserv": 685,
      "Ġra": 686,
      "pec": 687,
      "Ġpeople": 688,
      "ont": 689,
      "Ġshe": 690,
      "eb": 691,
      "Ġ197": 692,
      "olog": 693,
      "rib": 694,
      "ram": 695,
      "way": 696,
      "Ġev": 697,
      "Ġnew": 698,
      "Ġund": 699,
      "du": 700,
      "Ġloc": 701,
      "Ġthey": 702,
      "ans": 703,
      "Ex": 704,
      "ale": 705,
      "Ġne": 706,
      "olle": 707,
      "cess": 708,
      "cent": 709,
      "Ġinto": 710,
      "Ġwork": 711,
      "ames": 712,
      "Ġele": 713,
      "ough": 714,
      "ason": 715,
      "Âł": 716,
      "Ġtra": 717,
      "ists": 718,
      "Ġgro": 719,
      "eral": 720,
      "orth": 721,
      "Ġ6": 722,
      "ĠSh": 723,
      "Ġpre": 724,
      "Ġact": 725,
      "che": 726,
      "ose": 727,
      "ternal": 728,
      "Ġatt": 729,
      "ootball": 730,
      "ĠUnited": 731,
      "Ġcan": 732,
      "200": 733,
      "Ã©": 734,
      "ake": 735,
      "ict": 736,
      "Ġtime": 737,
      "rans": 738,
      "az": 739,
      "Ġsec": 740,
      "Ġbu": 741,
      "rough": 742,
      "ily": 743,
      "iel": 744,
      "Ġunder": 745,
      "Ġ196": 746,
      "ick": 747,
      "vi": 748,
      "duc": 749,
      "ix": 750,
      "ĠZ": 751,
      "ve": 752,
      "ĠInd": 753,
      "ĠUniversity": 754,
      "ll": 755,
      "ik": 756,
      "Ġpol": 757,
      "ince": 758,
      "Ġlinks": 759,
      "als": 760,
      "rad": 761,
      "oci": 762,
      "oth": 763,
      "Ġkn": 764,
      "ife": 765,
      "pr": 766,
      "form": 767,
      "Ġpubl": 768,
      "Ġreg": 769,
      "External": 770,
      "ident": 771,
      "oun": 772,
      "ĠPro": 773,
      "Ġhim": 774,
      "eat": 775,
      "Ġbet": 776,
      "Ġteam": 777,
      "ins": 778,
      "reat": 779,
      "aj": 780,
      "ities": 781,
      "use": 782,
      "ier": 783,
      "inn": 784,
      "Ġpr": 785,
      "Ġplayers": 786,
      "ouse": 787,
      "ck": 788,
      "emb": 789,
      "ina": 790,
      "Ġwhen": 791,
      "ann": 792,
      "Ġwould": 793,
      "ars": 794,
      "ollow": 795,
      "Ġmore": 796,
      "att": 797,
      "usic": 798,
      "Ġcent": 799,
      "Ġyears": 800,
      "Ġ7": 801,
      "Ġest": 802,
      "ober": 803,
      "ative": 804,
      "Ġcons": 805,
      "ween": 806,
      "ĠâĢ": 807,
      "Ġop": 808,
      "Ġco": 809,
      "Ġind": 810,
      "overn": 811,
      "eries": 812,
      "Ġagain": 813,
      "iving": 814,
      "ular": 815,
      "resent": 816,
      "raph": 817,
      "Ġduring": 818,
      "ced": 819,
      "Ġbo": 820,
      "Ġret": 821,
      "Ġform": 822,
      "Ġstud": 823,
      "Ġwhere": 824,
      "Ġsub": 825,
      "der": 826,
      "bum": 827,
      "round": 828,
      "abl": 829,
      "air": 830,
      "Ġass": 831,
      "ĠSc": 832,
      "ĠCl": 833,
      "any": 834,
      "Ġsup": 835,
      "Ġ194": 836,
      "Ġqu": 837,
      "ĠStates": 838,
      "Ġgen": 839,
      "ĠEng": 840,
      "ĠAn": 841,
      "ock": 842,
      "Ġme": 843,
      "ohn": 844,
      "Ġonly": 845,
      "enn": 846,
      "Ġfound": 847,
      "arl": 848,
      "Ġfl": 849,
      "ional": 850,
      "Ġsy": 851,
      "ash": 852,
      "Ġrel": 853,
      "Ġrele": 854,
      "Ġbetween": 855,
      "Ġfam": 856,
      "iam": 857,
      "pro": 858,
      "Ġbir": 859,
      "Ġspec": 860,
      "ĠShe": 861,
      "ounty": 862,
      "Ġfootball": 863,
      "201": 864,
      "Ġmost": 865,
      "erman": 866,
      "ific": 867,
      "Ġ17": 868,
      "istory": 869,
      "Ġ8": 870,
      "Ġ195": 871,
      "cc": 872,
      "Ġinter": 873,
      "Ġed": 874,
      "Ġabout": 875,
      "ague": 876,
      "istric": 877,
      "Ġart": 878,
      "Ġthree": 879,
      "fore": 880,
      "ley": 881,
      "ex": 882,
      "ths": 883,
      "Ġseason": 884,
      "ctor": 885,
      "Ġthrough": 886,
      "Ġrem": 887,
      "ield": 888,
      "ating": 889,
      "\".": 890,
      "Ġmade": 891,
      "Ġalbum": 892,
      "iver": 893,
      "ron": 894,
      "ĠAs": 895,
      "Ġnum": 896,
      "Ġlater": 897,
      "Ġused": 898,
      "Ġend": 899,
      "Ġfollow": 900,
      "Ġthem": 901,
      "Ġsing": 902,
      "inist": 903,
      "Ġthere": 904,
      "ever": 905,
      "Ġwrit": 906,
      "erson": 907,
      "Ġmov": 908,
      "mp": 909,
      "ograph": 910,
      "ĠIs": 911,
      "une": 912,
      "ank": 913,
      "ower": 914,
      "Ġthen": 915,
      "erm": 916,
      "ept": 917,
      "velop": 918,
      "Ġsecond": 919,
      "ten": 920,
      "son": 921,
      "ived": 922,
      "arg": 923,
      "Ġso": 924,
      "hen": 925,
      "ĠFran": 926,
      "Ġ9": 927,
      "Ġdef": 928,
      "Ġpop": 929,
      "ures": 930,
      ".\"": 931,
      "ĠQ": 932,
      "uss": 933,
      "ĠThis": 934,
      "ines": 935,
      "arly": 936,
      "21": 937,
      "ject": 938,
      "ĠSp": 939,
      "Ġdire": 940,
      "oss": 941,
      "omen": 942,
      "Ġtrans": 943,
      "Ġschool": 944,
      "ement": 945,
      "ari": 946,
      "ert": 947,
      "Ġrecord": 948,
      "Ġinv": 949,
      "ĠWar": 950,
      "Ġsuch": 951,
      "ĠWorld": 952,
      "ĠComm": 953,
      "Ġknown": 954,
      "ĠJohn": 955,
      "ism": 956,
      "Ġmed": 957,
      "ĠAust": 958,
      "istrict": 959,
      "ys": 960,
      "ĠNational": 961,
      "Ġ10": 962,
      "Ġset": 963,
      "Ġent": 964,
      "Ġthan": 965,
      "Ġbecame": 966,
      "\",": 967,
      "stit": 968,
      "uro": 969,
      "199": 970,
      "ĠJan": 971,
      "ĠMay": 972,
      "Ġph": 973,
      "Ġprov": 974,
      "ai": 975,
      "its": 976,
      "cy": 977,
      "ural": 978,
      "Ġinc": 979,
      "Ġam": 980,
      "ĠCon": 981,
      "ĠCounty": 982,
      "Ġestabl": 983,
      "ĠPh": 984,
      "ĠFor": 985,
      "ĠBl": 986,
      "Ġsome": 987,
      "ments": 988,
      "ternational": 989,
      "|-": 990,
      "Ġ&": 991,
      "ax": 992,
      "Ġbl": 993,
      "pos": 994,
      "ĠBrit": 995,
      "urch": 996,
      "ise": 997,
      "Ġfour": 998,
      "els": 999,
      "Ġbeing": 1000,
      "Ġseries": 1001,
      "Ġ16": 1002,
      "Ġlead": 1003,
      "Ġcall": 1004,
      "ĠSchool": 1005,
      "ute": 1006,
      "Ġ193": 1007,
      "ays": 1008,
      "eth": 1009,
      "ĊĊ": 1010,
      "Ġdo": 1011,
      "Ġ15": 1012,
      "Ġwell": 1013,
      "other": 1014,
      "Ġgroup": 1015,
      "ĠCan": 1016,
      "ĠOn": 1017,
      "ĠAt": 1018,
      "ey": 1019,
      "ty": 1020,
      "Ġincluding": 1021,
      "ike": 1022,
      "let": 1023,
      "ĠPl": 1024,
      "stem": 1025,
      "Ġsong": 1026,
      "Ġappe": 1027,
      "arri": 1028,
      "com": 1029,
      "very": 1030,
      "Ġagainst": 1031,
      "ĠSouth": 1032,
      "ctions": 1033,
      "ampions": 1034,
      "Ġdeath": 1035,
      "ĠJu": 1036,
      "ĠYork": 1037,
      "uary": 1038,
      "ather": 1039,
      "ĠGerman": 1040,
      "ven": 1041,
      "ians": 1042,
      "ĠNov": 1043,
      "rist": 1044,
      "rid": 1045,
      "ull": 1046,
      "arn": 1047,
      "ĠAd": 1048,
      "ugust": 1049,
      "ae": 1050,
      "ution": 1051,
      "areer": 1052,
      "my": 1053,
      "ĠWest": 1054,
      "ered": 1055,
      "til": 1056,
      "ired": 1057,
      "amed": 1058,
      "eptember": 1059,
      "Ġadd": 1060,
      "ives": 1061,
      "Ġsur": 1062,
      "Ġbefore": 1063,
      "000": 1064,
      "by": 1065,
      "Ġrece": 1066,
      "Ġwhile": 1067,
      "Ġdevelop": 1068,
      "ology": 1069,
      "Ġshow": 1070,
      "born": 1071,
      "Ġbro": 1072,
      "overnment": 1073,
      "ĠOr": 1074,
      "ctober": 1075,
      "Ġoper": 1076,
      "Ġsign": 1077,
      "elf": 1078,
      "=\"": 1079,
      "Ġmay": 1080,
      "Ġmod": 1081,
      "Ġpolit": 1082,
      "Ġmany": 1083,
      "owever": 1084,
      "Ġoffic": 1085,
      "aid": 1086,
      "Ġno": 1087,
      "Ġown": 1088,
      "Ġbuild": 1089,
      "Ġcap": 1090,
      "Ġmusic": 1091,
      "ized": 1092,
      "Ġgo": 1093,
      "Ġhigh": 1094,
      "ĠAugust": 1095,
      "Ġfamily": 1096,
      "Ġdec": 1097,
      "ues": 1098,
      "Ġmain": 1099,
      "ica": 1100,
      "Ġuntil": 1101,
      "lev": 1102,
      "ĠSeptember": 1103,
      "Ġorig": 1104,
      "au": 1105,
      "Ġnumber": 1106,
      "ĠCent": 1107,
      "rand": 1108,
      "Ġchar": 1109,
      "ets": 1110,
      "Ġ.": 1111,
      "Ġbirths": 1112,
      "Ġboth": 1113,
      "ĠMarch": 1114,
      "ery": 1115,
      "Ġrep": 1116,
      "lish": 1117,
      "ollege": 1118,
      "fess": 1119,
      "embers": 1120,
      "eng": 1121,
      "istor": 1122,
      "Ġcre": 1123,
      "mber": 1124,
      "ient": 1125,
      "uth": 1126,
      "pril": 1127,
      "ott": 1128,
      "ef": 1129,
      "Ġname": 1130,
      "oman": 1131,
      "ĠOctober": 1132,
      "ris": 1133,
      "Ġmon": 1134,
      "ĠGe": 1135,
      "ved": 1136,
      "gram": 1137,
      "itt": 1138,
      "Ġback": 1139,
      "Ġplayed": 1140,
      "ĠAustral": 1141,
      "Ġ12": 1142,
      "ĠJanuary": 1143,
      "xt": 1144,
      "ants": 1145,
      "Ġem": 1146,
      "wards": 1147,
      "ple": 1148,
      "sh": 1149,
      "ĠâĢĶ": 1150,
      "stru": 1151,
      "Ġexp": 1152,
      "ĠJune": 1153,
      "arm": 1154,
      "17": 1155,
      "cember": 1156,
      "ital": 1157,
      "ained": 1158,
      "ĠWh": 1159,
      "Ġreleased": 1160,
      "ulation": 1161,
      "Ġsever": 1162,
      "ĠMan": 1163,
      "ĠTe": 1164,
      "Ġgu": 1165,
      "Ch": 1166,
      "ission": 1167,
      "ajor": 1168,
      "Ġdesign": 1169,
      "ĠJuly": 1170,
      "198": 1171,
      "ium": 1172,
      "ior": 1173,
      "isc": 1174,
      "Ġcount": 1175,
      "yl": 1176,
      "imes": 1177,
      "ampionship": 1178,
      "ross": 1179,
      "Ġarea": 1180,
      "ĠApril": 1181,
      "ages": 1182,
      "Ġdif": 1183,
      "por": 1184,
      "ĠNorth": 1185,
      "ract": 1186,
      "Ġformer": 1187,
      "ĠPr": 1188,
      "ĠAss": 1189,
      "ĠBritish": 1190,
      "eg": 1191,
      "ĠLeague": 1192,
      "Ġfeat": 1193,
      "duced": 1194,
      "Ġmat": 1195,
      "ĠEuro": 1196,
      "Ġdesc": 1197,
      "ared": 1198,
      "ret": 1199,
      "Ġwon": 1200,
      "Ġstart": 1201,
      "ĠNovember": 1202,
      "Ġorgan": 1203,
      "vent": 1204,
      "Ġprodu": 1205,
      "Ġann": 1206,
      "ird": 1207,
      "See": 1208,
      "icip": 1209,
      "olor": 1210,
      "fl": 1211,
      "ĠCity": 1212,
      "Ġsystem": 1213,
      "Ġopen": 1214,
      "ĠGu": 1215,
      "led": 1216,
      "Ġlife": 1217,
      "resident": 1218,
      "ĠCo": 1219,
      "Ġrun": 1220,
      "rop": 1221,
      "St": 1222,
      "Ġclass": 1223,
      "ually": 1224,
      "ĠPol": 1225,
      "ety": 1226,
      "ĠDecember": 1227,
      "Ġsm": 1228,
      "10": 1229,
      "American": 1230,
      "ket": 1231,
      "Ġext": 1232,
      "Ġacc": 1233,
      "cept": 1234,
      "ports": 1235,
      "Ġfilms": 1236,
      "Ġob": 1237,
      "Ġstate": 1238,
      "ography": 1239,
      "ause": 1240,
      "arch": 1241,
      "Ġwill": 1242,
      "ĠEd": 1243,
      "Ġgame": 1244,
      "Ġpublic": 1245,
      "Ġlong": 1246,
      "ĠState": 1247,
      "apan": 1248,
      "ĠRep": 1249,
      "On": 1250,
      "century": 1251,
      "ĠCal": 1252,
      "Ġcalled": 1253,
      "levision": 1254,
      "ilt": 1255,
      "ebru": 1256,
      "Ġ14": 1257,
      "ebruary": 1258,
      "ung": 1259,
      "ĠII": 1260,
      "anc": 1261,
      "ales": 1262,
      "ĠBo": 1263,
      "rent": 1264,
      "hes": 1265,
      "ove": 1266,
      "Ġdr": 1267,
      "Ġsame": 1268,
      "Ġ13": 1269,
      "ĠAll": 1270,
      "inc": 1271,
      "con": 1272,
      "ĠCar": 1273,
      "ĠKing": 1274,
      "yle": 1275,
      "ner": 1276,
      "ĠReg": 1277,
      "amb": 1278,
      "ility": 1279,
      "Ġcommun": 1280,
      "Ġdep": 1281,
      "ilit": 1282,
      "ĠBro": 1283,
      "aking": 1284,
      "ĠCanad": 1285,
      "Ġseveral": 1286,
      "view": 1287,
      "ĠWill": 1288,
      "ĠAf": 1289,
      "Ġcity": 1290,
      "Ġchild": 1291,
      "af": 1292,
      "rat": 1293,
      "Ġreturn": 1294,
      "Ġfinal": 1295,
      "Ġfin": 1296,
      "ĠSe": 1297,
      "yn": 1298,
      "oint": 1299,
      "ony": 1300,
      "Ġair": 1301,
      "ange": 1302,
      "chn": 1303,
      "Ġsuc": 1304,
      "Ġcareer": 1305,
      "ible": 1306,
      "rench": 1307,
      "right": 1308,
      "Ġfollowing": 1309,
      "ially": 1310,
      "orks": 1311,
      "Ġearly": 1312,
      "ured": 1313,
      "ped": 1314,
      "Ġcontin": 1315,
      "Ġtown": 1316,
      "Ġ11": 1317,
      "the": 1318,
      "ful": 1319,
      "sp": 1320,
      "ĠBe": 1321,
      "Ġ'": 1322,
      "Ġlist": 1323,
      "ĠFebruary": 1324,
      "ices": 1325,
      "ains": 1326,
      "ally": 1327,
      "Ã¡": 1328,
      "Ġmin": 1329,
      "Ġcur": 1330,
      "ster": 1331,
      "reen": 1332,
      "ĠEurope": 1333,
      "ĠAm": 1334,
      "ring": 1335,
      "Ġbel": 1336,
      "Ġsince": 1337,
      "bo": 1338,
      "ience": 1339,
      "ata": 1340,
      "ĠĠĠĠ": 1341,
      "Ġoriginal": 1342,
      "Ġprogram": 1343,
      "Ġnear": 1344,
      "Ġ2010": 1345,
      "ised": 1346,
      "Ġcompet": 1347,
      "Ġdisc": 1348,
      "Ġany": 1349,
      "ham": 1350,
      "âĢĻ": 1351,
      "angu": 1352,
      "ese": 1353,
      "ble": 1354,
      "197": 1355,
      "ĠFl": 1356,
      "ided": 1357,
      "ued": 1358,
      "Ġthese": 1359,
      "orm": 1360,
      "ival": 1361,
      "ended": 1362,
      "Ġhead": 1363,
      "ille": 1364,
      "Ġplace": 1365,
      "ze": 1366,
      "ane": 1367,
      "16": 1368,
      "Ġ192": 1369,
      "Ġwomen": 1370,
      "Ġnamed": 1371,
      "Ġbased": 1372,
      "..": 1373,
      "Ġclub": 1374,
      "Ġbegan": 1375,
      "Ġwe": 1376,
      "ĠPar": 1377,
      "ĠThey": 1378,
      "Ġvill": 1379,
      "Ġcomple": 1380,
      "Ġuse": 1381,
      "Ġtit": 1382,
      "Ġland": 1383,
      "Ġeff": 1384,
      "ious": 1385,
      "Ġprom": 1386,
      "Ġsupport": 1387,
      "aint": 1388,
      "Ġmet": 1389,
      "Ġmembers": 1390,
      "ĠUS": 1391,
      "ĠBar": 1392,
      "iness": 1393,
      "Ġapp": 1394,
      "ality": 1395,
      "Ġmember": 1396,
      "Ġeng": 1397,
      "Ġgovernment": 1398,
      "Ġdist": 1399,
      "Ġheld": 1400,
      "Ġestablished": 1401,
      "augh": 1402,
      "ically": 1403,
      "ĠGeor": 1404,
      "Ġpass": 1405,
      "Ġ2011": 1406,
      "ivision": 1407,
      "pect": 1408,
      "Ġalong": 1409,
      "ĠHis": 1410,
      "ĠJapan": 1411,
      "itions": 1412,
      "ounc": 1413,
      "15": 1414,
      "ĠChrist": 1415,
      "Ġdescrib": 1416,
      "ĠAfter": 1417,
      "Ġlocated": 1418,
      "tt": 1419,
      "me": 1420,
      "urg": 1421,
      "Ġcharact": 1422,
      "ien": 1423,
      "ĠAnd": 1424,
      "ĠHar": 1425,
      "ana": 1426,
      "Ġdid": 1427,
      "Ġocc": 1428,
      "ode": 1429,
      "Ġeach": 1430,
      "ĠSw": 1431,
      "alth": 1432,
      "Ġlaw": 1433,
      "ford": 1434,
      "Ġsim": 1435,
      "ondon": 1436,
      "ino": 1437,
      "Ġyou": 1438,
      "Ġ2008": 1439,
      "ky": 1440,
      "ĠCol": 1441,
      "row": 1442,
      "ĠEnglish": 1443,
      "ĠEl": 1444,
      "aced": 1445,
      "ator": 1446,
      "ĠMc": 1447,
      "ĠGen": 1448,
      "Ġband": 1449,
      "ney": 1450,
      "Ġ2012": 1451,
      "ĠPart": 1452,
      "ublic": 1453,
      "ĠEx": 1454,
      "lymp": 1455,
      "ington": 1456,
      "Ġpos": 1457,
      "He": 1458,
      "ociation": 1459,
      "ĠCollege": 1460,
      "Ġtr": 1461,
      "ĠAir": 1462,
      "que": 1463,
      "uk": 1464,
      "ches": 1465,
      "ĠEast": 1466,
      "ats": 1467,
      "Ġinst": 1468,
      "ored": 1469,
      "erg": 1470,
      "ourn": 1471,
      "12": 1472,
      "Ġbus": 1473,
      "ined": 1474,
      "ĠAfric": 1475,
      "aving": 1476,
      "Ġstation": 1477,
      "Ġ2009": 1478,
      "Ġmajor": 1479,
      "Ġtook": 1480,
      "ett": 1481,
      "ĊĠ": 1482,
      "Ġsmall": 1483,
      "rew": 1484,
      "ĠChampionship": 1485,
      "Ġline": 1486,
      "Ġ2014": 1487,
      "Ġhouse": 1488,
      "eter": 1489,
      "med": 1490,
      "Ġhome": 1491,
      "ourt": 1492,
      "ards": 1493,
      "ights": 1494,
      "ĠAb": 1495,
      "illion": 1496,
      "Ġnational": 1497,
      "ĠRo": 1498,
      "ps": 1499,
      "aces": 1500,
      "Ġcompany": 1501,
      "adem": 1502,
      "Ġsl": 1503,
      "Ġ2013": 1504,
      "Ġpopulation": 1505,
      "Ġworld": 1506,
      "Ġperson": 1507,
      "Ġvari": 1508,
      "int": 1509,
      "aul": 1510,
      "Ġserved": 1511,
      "Ġ2006": 1512,
      "Th": 1513,
      "Ġ2007": 1514,
      "ĠLondon": 1515,
      "Ġbas": 1516,
      "Ġ190": 1517,
      "Ġlocal": 1518,
      "Ġgeneral": 1519,
      "Ġgames": 1520,
      "Ġalign": 1521,
      "Ġvers": 1522,
      "ĠFrench": 1523,
      "Ġborn": 1524,
      "Ġleg": 1525,
      "Ġ2015": 1526,
      "ature": 1527,
      "Ġcentury": 1528,
      "arge": 1529,
      "ĠDistrict": 1530,
      "ĠX": 1531,
      "ĠMed": 1532,
      "Ġvi": 1533,
      "Ġ2016": 1534,
      "Ġpublished": 1535,
      "196": 1536,
      "ĠWilliam": 1537,
      "Ġtelevision": 1538,
      "Ġcould": 1539,
      "sc": 1540,
      "Ġappro": 1541,
      "Ġevent": 1542,
      "iet": 1543,
      "Ġbuilt": 1544,
      "Ġsuccess": 1545,
      "Ġprofess": 1546,
      "side": 1547,
      "Ġ$": 1548,
      "Ġreceived": 1549,
      "ĠRuss": 1550,
      "ffic": 1551,
      "Ġmanag": 1552,
      "ĠHigh": 1553,
      "Ġjoin": 1554,
      "ilitary": 1555,
      "Ġdeb": 1556,
      "Ġpo": 1557,
      "Ġsingle": 1558,
      "Ġstr": 1559,
      "vers": 1560,
      "ara": 1561,
      "Ġterm": 1562,
      "ief": 1563,
      "ides": 1564,
      "ĠSy": 1565,
      "ĠĊĠĊ": 1566,
      "Ġaround": 1567,
      "Ġcolle": 1568,
      "rol": 1569,
      "ĠHer": 1570,
      "Al": 1571,
      "ately": 1572,
      "ows": 1573,
      "ummer": 1574,
      "ified": 1575,
      "14": 1576,
      "ords": 1577,
      "Ġold": 1578,
      "Living": 1579,
      "ording": 1580,
      "Ġdue": 1581,
      "Ġ25": 1582,
      "uthor": 1583,
      "omin": 1584,
      "Ġnow": 1585,
      "Ġhel": 1586,
      "ouncil": 1587,
      "ĠCup": 1588,
      "arried": 1589,
      "ĠComp": 1590,
      "Ġeduc": 1591,
      "Ġspecies": 1592,
      "ev": 1593,
      "Ġlast": 1594,
      "aus": 1595,
      "ocial": 1596,
      "Ġty": 1597,
      "ration": 1598,
      "umn": 1599,
      "ling": 1600,
      "Ġage": 1601,
      "ĠSec": 1602,
      "ĠItal": 1603,
      "Ġ2018": 1604,
      "Ġpresent": 1605,
      "Ġep": 1606,
      "iod": 1607,
      "Ġ2017": 1608,
      "Ġleft": 1609,
      "Ã³": 1610,
      "idd": 1611,
      "raft": 1612,
      "Ġhistory": 1613,
      "aim": 1614,
      "oph": 1615,
      "reet": 1616,
      "ĠHowever": 1617,
      "13": 1618,
      "Ġcar": 1619,
      "ization": 1620,
      "Ġ189": 1621,
      "ĠHouse": 1622,
      "ĠDav": 1623,
      "Ġsix": 1624,
      "Ġcamp": 1625,
      "artment": 1626,
      "Ġla": 1627,
      "Ġ30": 1628,
      "ĠArt": 1629,
      "ĠPark": 1630,
      "tal": 1631,
      "Ġrest": 1632,
      "ĠAng": 1633,
      "ĠCor": 1634,
      "co": 1635,
      "color": 1636,
      "Ġplayer": 1637,
      "Ġorder": 1638,
      "Ġdet": 1639,
      "umb": 1640,
      "van": 1641,
      "ink": 1642,
      "Ġpar": 1643,
      "Ġtop": 1644,
      "ele": 1645,
      "ĠSup": 1646,
      "uf": 1647,
      "iven": 1648,
      "akes": 1649,
      "to": 1650,
      "Ġnorth": 1651,
      "Ġwithin": 1652,
      "Ġsaid": 1653,
      "Ġ2019": 1654,
      "Ġrepresent": 1655,
      "People": 1656,
      "Ġshort": 1657,
      "ones": 1658,
      "Ġtri": 1659,
      "Ġinclude": 1660,
      "ĠRes": 1661,
      "ideo": 1662,
      "Ġdied": 1663,
      "ĠLa": 1664,
      "ether": 1665,
      "anguage": 1666,
      "ĠPhil": 1667,
      "Ġvillage": 1668,
      "Ġfive": 1669,
      "Ġday": 1670,
      "oks": 1671,
      "Ġdiffer": 1672,
      "hem": 1673,
      "ently": 1674,
      "Ġ,": 1675,
      "ison": 1676,
      "Ġstyle": 1677,
      "Un": 1678,
      "Ġcol": 1679,
      "urther": 1680,
      "day": 1681,
      "Ġbecause": 1682,
      "ĠMe": 1683,
      "Ġrequ": 1684,
      "though": 1685,
      "ĠInternational": 1686,
      "ĠNo": 1687,
      "ĠRiver": 1688,
      "alk": 1689,
      "iforn": 1690,
      "aster": 1691,
      "Ġdescribed": 1692,
      "Ġ0": 1693,
      "urs": 1694,
      "ument": 1695,
      "Ġdown": 1696,
      "ler": 1697,
      "na": 1698,
      "ĠGl": 1699,
      "oyal": 1700,
      "50": 1701,
      "ene": 1702,
      "Ġref": 1703,
      "ĠIndian": 1704,
      "Ġbuilding": 1705,
      "Ġlarge": 1706,
      "Ġmen": 1707,
      "Ġthird": 1708,
      "Ġpost": 1709,
      "Ġincluded": 1710,
      "Ġconsid": 1711,
      "ĠTr": 1712,
      "ote": 1713,
      "Ġchildren": 1714,
      "reg": 1715,
      "ifornia": 1716,
      "Ġpower": 1717,
      "ively": 1718,
      "ference": 1719,
      "Ġstand": 1720,
      "rest": 1721,
      ".,": 1722,
      "ridge": 1723,
      "Ġ2005": 1724,
      "ĠOlymp": 1725,
      "ÃŃ": 1726,
      "Ã¼": 1727,
      "Ġ24": 1728,
      "tain": 1729,
      "Ġresult": 1730,
      "Ġmark": 1731,
      "ald": 1732,
      "Ġadm": 1733,
      "Ġdem": 1734,
      "Ġreport": 1735,
      "ĠAc": 1736,
      "ĠEngland": 1737,
      "Ġsouth": 1738,
      "vious": 1739,
      "riend": 1740,
      "Ġ2020": 1741,
      "ĠEn": 1742,
      "conom": 1743,
      "osp": 1744,
      "Ġson": 1745,
      "ĠSan": 1746,
      "ĠRec": 1747,
      "ody": 1748,
      "adio": 1749,
      "key": 1750,
      "Ġlo": 1751,
      "ico": 1752,
      "era": 1753,
      "uman": 1754,
      "cture": 1755,
      "Ġbook": 1756,
      "useum": 1757,
      "Ġcor": 1758,
      "uck": 1759,
      "Ġlarg": 1760,
      "rag": 1761,
      "ĠDep": 1762,
      "inning": 1763,
      "iter": 1764,
      "lands": 1765,
      "ining": 1766,
      "History": 1767,
      "ency": 1768,
      "Ġcurrent": 1769,
      "Ġstat": 1770,
      "ka": 1771,
      "Ġarch": 1772,
      "ĠMich": 1773,
      "ĠThere": 1774,
      "ister": 1775,
      "ĠCalifornia": 1776,
      "ox": 1777,
      "Ġdistrict": 1778,
      "ĠBr": 1779,
      "Ġappear": 1780,
      "Ġfac": 1781,
      "Ġdeaths": 1782,
      "Ġwater": 1783,
      "Ġ2000": 1784,
      "gcolor": 1785,
      "Ġnon": 1786,
      "Ġiss": 1787,
      "ched": 1788,
      "Ġdifferent": 1789,
      "ĠAustralia": 1790,
      "ness": 1791,
      "Ġperiod": 1792,
      "Ġcrit": 1793,
      "alf": 1794,
      "Ġjust": 1795,
      "Ġservice": 1796,
      "ĠSch": 1797,
      "Ġrepl": 1798,
      "Ġvis": 1799,
      "hel": 1800,
      "Ġperform": 1801,
      "ociety": 1802,
      "eek": 1803,
      "ki": 1804,
      "ground": 1805,
      "Ġ188": 1806,
      "194": 1807,
      "Ġrefer": 1808,
      "Ġincre": 1809,
      "Ġaddition": 1810,
      "otes": 1811,
      "Ar": 1812,
      "Ġresp": 1813,
      "Ġannoun": 1814,
      "Ġwar": 1815,
      "ize": 1816,
      "Ġlike": 1817,
      "ĠAg": 1818,
      "ering": 1819,
      "omb": 1820,
      "Ġkill": 1821,
      "Ġequ": 1822,
      "Ġtrad": 1823,
      "Ġmale": 1824,
      "line": 1825,
      "Ġif": 1826,
      "cer": 1827,
      "ours": 1828,
      "Ġ2004": 1829,
      "ĠYou": 1830,
      "ense": 1831,
      "avy": 1832,
      "Ġthose": 1833,
      "Ġstill": 1834,
      "ribut": 1835,
      "of": 1836,
      "Ġship": 1837,
      "Ġbgcolor": 1838,
      "11": 1839,
      "Ġfield": 1840,
      "Ġanother": 1841,
      "Ġbusiness": 1842,
      "Ġmoved": 1843,
      "ves": 1844,
      "Ġcr": 1845,
      "oon": 1846,
      "ĠAward": 1847,
      "iber": 1848,
      "ama": 1849,
      "ĠParty": 1850,
      "Ġexper": 1851,
      "Ġhand": 1852,
      "ament": 1853,
      "par": 1854,
      "ases": 1855,
      "ander": 1856,
      "hern": 1857,
      "Ġwest": 1858,
      "Ġled": 1859,
      "ĠArmy": 1860,
      "epend": 1861,
      "ops": 1862,
      "Ġhistor": 1863,
      "alt": 1864,
      "Ġbest": 1865,
      "Ġav": 1866,
      "Ġcompos": 1867,
      "ivil": 1868,
      "ĠGro": 1869,
      "Ġvery": 1870,
      "Ġfather": 1871,
      "ĠPer": 1872,
      "Ġauthor": 1873,
      "dom": 1874,
      "Ġport": 1875,
      "Ġcharacter": 1876,
      "Ġproject": 1877,
      "Ġcountry": 1878,
      "ugg": 1879,
      "Ġactiv": 1880,
      "Ġel": 1881,
      "Ġdel": 1882,
      "Ġsold": 1883,
      "struction": 1884,
      "Ġinternational": 1885,
      "uel": 1886,
      "Ġpat": 1887,
      "30": 1888,
      "ĠAmer": 1889,
      "Ġeast": 1890,
      "ĠIndia": 1891,
      "field": 1892,
      "ĠPort": 1893,
      "lin": 1894,
      "attle": 1895,
      "Ġnov": 1896,
      "ush": 1897,
      "Ġfem": 1898,
      "ĠChurch": 1899,
      "read": 1900,
      "ries": 1901,
      "ĠMon": 1902,
      "Ġoften": 1903,
      "Ġmake": 1904,
      "195": 1905,
      "Ġcult": 1906,
      "Ġtitle": 1907,
      "ms": 1908,
      "ript": 1909,
      "cast": 1910,
      "Ġside": 1911,
      "ĠFrance": 1912,
      "Ġround": 1913,
      "ĠMinist": 1914,
      "Ġ186": 1915,
      "ael": 1916,
      "Ġ22": 1917,
      "Ġlevel": 1918,
      "Ġweb": 1919,
      "Ġestablish": 1920,
      "ĠRoman": 1921,
      "work": 1922,
      "ius": 1923,
      "lex": 1924,
      "app": 1925,
      "Ġwin": 1926,
      "ournal": 1927,
      "ĠChar": 1928,
      "gin": 1929,
      "aff": 1930,
      "bor": 1931,
      "Ġdebut": 1932,
      "olution": 1933,
      "ĠSm": 1934,
      "Ġamong": 1935,
      "anish": 1936,
      "Ġmag": 1937,
      "orthern": 1938,
      "Ġspe": 1939,
      "Ġthough": 1940,
      "ole": 1941,
      "Ġ21": 1942,
      "Ġread": 1943,
      "Ġaward": 1944,
      "Ġproduced": 1945,
      "âĢĶ": 1946,
      "Ġfe": 1947,
      "Ġprevious": 1948,
      "Ġsett": 1949,
      "Ġtechn": 1950,
      "Ġworks": 1951,
      "abor": 1952,
      "atch": 1953,
      "raw": 1954,
      "Com": 1955,
      "unicip": 1956,
      "Ġexpl": 1957,
      "itar": 1958,
      "Ġlate": 1959,
      "ories": 1960,
      "rem": 1961,
      "Ġeven": 1962,
      "Ġrole": 1963,
      "Ġaff": 1964,
      "ploy": 1965,
      "forman": 1966,
      "align": 1967,
      "ape": 1968,
      "ĠEm": 1969,
      "Ġ23": 1970,
      "de": 1971,
      "Ġpolitic": 1972,
      "Ġannounced": 1973,
      "off": 1974,
      "Ġinvol": 1975,
      "rote": 1976,
      "Ġwritten": 1977,
      "irc": 1978,
      "Ġposs": 1979,
      "ĠQu": 1980,
      "ĠAnt": 1981,
      "ront": 1982,
      "Ġrese": 1983,
      "ĠBel": 1984,
      "Ġfore": 1985,
      "ĠAct": 1986,
      "ville": 1987,
      "Ġengine": 1988,
      "formation": 1989,
      "ĠCanada": 1990,
      "Ġepis": 1991,
      "Ġimport": 1992,
      "ĠNor": 1993,
      "stitute": 1994,
      "Ġes": 1995,
      "ĠDivision": 1996,
      "As": 1997,
      "iment": 1998,
      "rap": 1999,
      "ĠQue": 2000,
      "acks": 2001,
      "Ġ2003": 2002,
      "Ġallow": 2003,
      "Ġ187": 2004,
      "ipp": 2005,
      "ĠCouncil": 2006,
      "Ġadv": 2007,
      "Ã¶": 2008,
      "Ġevery": 2009,
      "olic": 2010,
      "ĠRober": 2011,
      "rack": 2012,
      "Ġcame": 2013,
      "Ġmillion": 2014,
      "Ġyoung": 2015,
      "lect": 2016,
      "ges": 2017,
      "Ġeffect": 2018,
      "Ġgrad": 2019,
      "Ġelection": 2020,
      "ĠJames": 2021,
      "Ġstarted": 2022,
      "Ġval": 2023,
      "omet": 2024,
      "ivid": 2025,
      "Ġcreated": 2026,
      "ĠAmerica": 2027,
      "ĠAp": 2028,
      "Ġsite": 2029,
      "ĠGeneral": 2030,
      "Ġofficial": 2031,
      "ray": 2032,
      "ĠRoyal": 2033,
      "Ġcover": 2034,
      "itor": 2035,
      "Ġclos": 2036,
      "site": 2037,
      "ha": 2038,
      "Ġturn": 2039,
      "ban": 2040,
      "val": 2041,
      "Ġ26": 2042,
      "ĠThom": 2043,
      "ĠPresident": 2044,
      "lo": 2045,
      "outher": 2046,
      "Ġstru": 2047,
      "Ġwhat": 2048,
      "ĠPal": 2049,
      "ĠOne": 2050,
      "ĠMor": 2051,
      "Ġtotal": 2052,
      "Ġgiven": 2053,
      "22": 2054,
      "Ġcommunity": 2055,
      "Ġ2002": 2056,
      "Ġwent": 2057,
      "ĠVal": 2058,
      "ĠBy": 2059,
      "Ġinit": 2060,
      "gy": 2061,
      "eration": 2062,
      "ĠGeorge": 2063,
      "Ġmarried": 2064,
      "ults": 2065,
      "ĠBra": 2066,
      "ean": 2067,
      "outhern": 2068,
      "reek": 2069,
      "Ġchang": 2070,
      "An": 2071,
      "Ġmuch": 2072,
      "Ġfre": 2073,
      "Ġdevelopment": 2074,
      "irl": 2075,
      "Ġprocess": 2076,
      "ĠMount": 2077,
      "Ġ28": 2078,
      "ĠEuropean": 2079,
      "west": 2080,
      "Ġelect": 2081,
      "ots": 2082,
      "Ġ27": 2083,
      "ged": 2084,
      "ĠStreet": 2085,
      "Ġcommon": 2086,
      "iron": 2087,
      "Ġfact": 2088,
      "Ġconc": 2089,
      "Ġrail": 2090,
      "Ġpe": 2091,
      "ya": 2092,
      "Ġ2021": 2093,
      "Ġpolitical": 2094,
      "Ġ2001": 2095,
      "bert": 2096,
      "ago": 2097,
      "Ġsw": 2098,
      "back": 2099,
      "atic": 2100,
      "Ġversion": 2101,
      "Ġvarious": 2102,
      "ĠHol": 2103,
      "eal": 2104,
      "Ġconf": 2105,
      "umni": 2106,
      "posed": 2107,
      "Ġpres": 2108,
      "ij": 2109,
      "Ġbecome": 2110,
      "Ġspecial": 2111,
      "ston": 2112,
      "ĠLou": 2113,
      "ĠAssociation": 2114,
      "ma": 2115,
      "ological": 2116,
      "hers": 2117,
      "ĠMal": 2118,
      "self": 2119,
      "ĠPaul": 2120,
      "Ġtw": 2121,
      "ĠRich": 2122,
      "ĠSen": 2123,
      "193": 2124,
      "ointed": 2125,
      "Ġvideo": 2126,
      "Ġusing": 2127,
      "Ġprote": 2128,
      "Pl": 2129,
      "BC": 2130,
      "itte": 2131,
      "Ġmilitary": 2132,
      "Ġbre": 2133,
      "Ġworked": 2134,
      "ream": 2135,
      "Ġjoined": 2136,
      "Ġproduction": 2137,
      "Ġhaving": 2138,
      "ĠGermany": 2139,
      "Ġnext": 2140,
      "ached": 2141,
      "Ġclaim": 2142,
      "Ġintro": 2143,
      "ĠRed": 2144,
      "ĠDem": 2145,
      "Ġtem": 2146,
      "ead": 2147,
      "eh": 2148,
      "ogn": 2149,
      "Ġmiss": 2150,
      "ĠAustralian": 2151,
      "Ġdirect": 2152,
      "'t": 2153,
      "Ġsit": 2154,
      "Ġhost": 2155,
      "oor": 2156,
      "hib": 2157,
      "iction": 2158,
      "Ġpri": 2159,
      "=#": 2160,
      "ests": 2161,
      "Ġ100": 2162,
      "ĠUnion": 2163,
      "ination": 2164,
      "Ġprofessional": 2165,
      "Ġfun": 2166,
      "Ġfew": 2167,
      "Ġtake": 2168,
      "Ġsent": 2169,
      "flu": 2170,
      "Ġgl": 2171,
      "ĠDes": 2172,
      "Ġprim": 2173,
      "ĠDavid": 2174,
      "ilar": 2175,
      "rain": 2176,
      "ĠDr": 2177,
      "ope": 2178,
      "Ġant": 2179,
      "erb": 2180,
      "Ġposition": 2181,
      "Ġpopular": 2182,
      "mon": 2183,
      "Ġreturned": 2184,
      "ming": 2185,
      "ittle": 2186,
      "ĠPe": 2187,
      "Ġvol": 2188,
      "Ġgr": 2189,
      "Ġbeh": 2190,
      "iography": 2191,
      "aken": 2192,
      "Ġmult": 2193,
      "oe": 2194,
      "Ġ[": 2195,
      "ividual": 2196,
      "ĠÃ": 2197,
      "Ġperforman": 2198,
      "Ġchurch": 2199,
      "Ġway": 2200,
      "arian": 2201,
      "Ġsongs": 2202,
      "ule": 2203,
      "Ġ1990": 2204,
      "ibr": 2205,
      "oints": 2206,
      "ĠStud": 2207,
      "Ġwrote": 2208,
      "Ġsol": 2209,
      "Ġstudents": 2210,
      "hold": 2211,
      "sequ": 2212,
      "ĠHall": 2213,
      "Ġevents": 2214,
      "ĠBer": 2215,
      "ashington": 2216,
      "Ġtimes": 2217,
      "Ġbeg": 2218,
      "Ġhig": 2219,
      "han": 2220,
      "ida": 2221,
      "berg": 2222,
      "Ġmatch": 2223,
      "Ġopened": 2224,
      "ention": 2225,
      "âĢĿ": 2226,
      "Ġstory": 2227,
      "rian": 2228,
      "Ġneed": 2229,
      "ĠVir": 2230,
      "Ġsk": 2231,
      "Ġsqu": 2232,
      "CA": 2233,
      "After": 2234,
      "Ġimp": 2235,
      "icle": 2236,
      "iles": 2237,
      "stitut": 2238,
      "Ġpresident": 2239,
      "ning": 2240,
      "Ġ29": 2241,
      "ĠAcadem": 2242,
      "ocrat": 2243,
      "Ġteams": 2244,
      "arliam": 2245,
      "Ġgreat": 2246,
      "ĠDuring": 2247,
      "Ġfriend": 2248,
      "unt": 2249,
      "ĠMart": 2250,
      "ying": 2251,
      "Ġalbums": 2252,
      "itz": 2253,
      "Ġservices": 2254,
      "ccording": 2255,
      "Ġdirector": 2256,
      "ĠMary": 2257,
      "ested": 2258,
      "anies": 2259,
      "ĠChina": 2260,
      "ources": 2261,
      "ĠRoad": 2262,
      "atri": 2263,
      "rab": 2264,
      "cts": 2265,
      "Ġroad": 2266,
      "ym": 2267,
      "ecut": 2268,
      "Ġpract": 2269,
      "Ġparticip": 2270,
      "Ġwithout": 2271,
      "Ġhowever": 2272,
      "arliament": 2273,
      "wood": 2274,
      "aughter": 2275,
      "iddle": 2276,
      "ĠMusic": 2277,
      "ship": 2278,
      "ĠClub": 2279,
      "ĠHen": 2280,
      "aur": 2281,
      "Ġfull": 2282,
      "ances": 2283,
      "odes": 2284,
      "ĠMex": 2285,
      "ample": 2286,
      "ĠJos": 2287,
      "Ġattack": 2288,
      "Ġadminist": 2289,
      "Ġsocial": 2290,
      "rated": 2291,
      "Ġsee": 2292,
      "Ġvoc": 2293,
      "ĠMag": 2294,
      "Ġbrother": 2295,
      "atter": 2296,
      "Ġter": 2297,
      "Ġbroad": 2298,
      "Ġregion": 2299,
      "ending": 2300,
      "Ġ1999": 2301,
      "ĠCompany": 2302,
      "aining": 2303,
      "Pro": 2304,
      "arent": 2305,
      "Ġ()": 2306,
      "ators": 2307,
      "Ġhalf": 2308,
      "icular": 2309,
      "wh": 2310,
      "ĠTown": 2311,
      "Ġfootballers": 2312,
      "acy": 2313,
      "Ġattem": 2314,
      "aign": 2315,
      "Ġindust": 2316,
      "Ġcontrol": 2317,
      "ĠTex": 2318,
      "Ġcontinued": 2319,
      "aper": 2320,
      "year": 2321,
      "ĠProv": 2322,
      "Ġcomb": 2323,
      "ills": 2324,
      "Ġmid": 2325,
      "ketball": 2326,
      "25": 2327,
      "ership": 2328,
      "Ġresearch": 2329,
      "ĠKingdom": 2330,
      "Ġinf": 2331,
      "ising": 2332,
      "ĠSociety": 2333,
      "ittee": 2334,
      "ani": 2335,
      "ĠHistor": 2336,
      "burg": 2337,
      "ĠLaw": 2338,
      "used": 2339,
      "isl": 2340,
      "less": 2341,
      "ĠWhen": 2342,
      "craft": 2343,
      "Ġlost": 2344,
      "ĠThese": 2345,
      "Ġident": 2346,
      "Ġeconom": 2347,
      "ĠMy": 2348,
      "ĠCourt": 2349,
      "Ġeducation": 2350,
      "ĠList": 2351,
      "ĠFirst": 2352,
      "Ġlim": 2353,
      "Ġdays": 2354,
      "uit": 2355,
      "ĠIsland": 2356,
      "ĠTur": 2357,
      "Ġright": 2358,
      "Ġproper": 2359,
      "ĠBlack": 2360,
      "Ġproduc": 2361,
      "Ġfounded": 2362,
      "estival": 2363,
      "ĠCenter": 2364,
      "ĠGames": 2365,
      "ification": 2366,
      "ĠWashington": 2367,
      "ĠPri": 2368,
      "apt": 2369,
      "ĠCanadian": 2370,
      "ĠNe": 2371,
      "Ġcompleted": 2372,
      "Ġrecorded": 2373,
      "Ġ1980": 2374,
      "Ġgroups": 2375,
      "now": 2376,
      "ĠCath": 2377,
      "Ġaver": 2378,
      "Ġpoint": 2379,
      "men": 2380,
      "ini": 2381,
      "inese": 2382,
      "Ġareas": 2383,
      "ĠSl": 2384,
      "Ġparty": 2385,
      "Ġinvest": 2386,
      "uff": 2387,
      "It": 2388,
      "ĠOlympics": 2389,
      "ĠSummer": 2390,
      "Ġconsidered": 2391,
      "atural": 2392,
      "Cl": 2393,
      "ĠRecords": 2394,
      "Ġkm": 2395,
      "Film": 2396,
      "ona": 2397,
      "Ġreal": 2398,
      "Ġfind": 2399,
      "ways": 2400,
      "ĠGroup": 2401,
      "Ġwebsite": 2402,
      "Ġdirected": 2403,
      "ĠMad": 2404,
      "Ġconne": 2405,
      "Ġelected": 2406,
      "ishing": 2407,
      "ĠAfrican": 2408,
      "ĠâĢľ": 2409,
      "arth": 2410,
      "ĠChe": 2411,
      "Ġwife": 2412,
      "ĠServ": 2413,
      "olit": 2414,
      "ĠSam": 2415,
      "Ġcoach": 2416,
      "Ġsimilar": 2417,
      "Ġappointed": 2418,
      "Ġbase": 2419,
      "Ġview": 2420,
      "icles": 2421,
      "center": 2422,
      "Ġcaus": 2423,
      "aries": 2424,
      "ĠMiss": 2425,
      "oted": 2426,
      "Ġalumni": 2427,
      "ĠRobert": 2428,
      "ells": 2429,
      "Ġ1998": 2430,
      "ĠRail": 2431,
      "asons": 2432,
      "Ġrelations": 2433,
      "etwork": 2434,
      "Ġpoints": 2435,
      "ĠDepartment": 2436,
      "ĠTra": 2437,
      "Ġfurther": 2438,
      "ili": 2439,
      "ensus": 2440,
      "ĠArch": 2441,
      "ĠPress": 2442,
      "Ġhold": 2443,
      "Ġindividual": 2444,
      "Ġtog": 2445,
      "Ġhon": 2446,
      "ĠWe": 2447,
      "ĠSte": 2448,
      "ĠInstitute": 2449,
      "Ġdeg": 2450,
      "40": 2451,
      "ictor": 2452,
      "ĠGr": 2453,
      "Ġpriv": 2454,
      "idence": 2455,
      "Ġinflu": 2456,
      "Ġleague": 2457,
      "Ġrace": 2458,
      "Ġsigned": 2459,
      "Ġtogether": 2460,
      "rd": 2461,
      "ĠJapanese": 2462,
      "ĠAngel": 2463,
      "Ġren": 2464,
      "Ġreview": 2465,
      "ĠMuseum": 2466,
      "ellow": 2467,
      "ĠSal": 2468,
      "Ġappeared": 2469,
      "ger": 2470,
      "Ġcoll": 2471,
      "ĠMont": 2472,
      "yd": 2473,
      "ĊĠĊ": 2474,
      "rick": 2475,
      "ump": 2476,
      "Ġcase": 2477,
      "ĠAcademy": 2478,
      "ĠCentral": 2479,
      "Ġdeveloped": 2480,
      "nel": 2481,
      "uation": 2482,
      "ĠBest": 2483,
      "arter": 2484,
      "Ġimportant": 2485,
      "Ġmy": 2486,
      "thlet": 2487,
      "Ġten": 2488,
      "ĠSing": 2489,
      "ĠGrand": 2490,
      "Ġrelease": 2491,
      "ique": 2492,
      "ĠTV": 2493,
      "ĠFootball": 2494,
      "ederal": 2495,
      "ĠThomas": 2496,
      "rish": 2497,
      "Ġnovel": 2498,
      "Ġappl": 2499,
      "Ġins": 2500,
      "Ġaut": 2501,
      "itive": 2502,
      "oul": 2503,
      "mar": 2504,
      "Ġcond": 2505,
      "Ġ/": 2506,
      "ota": 2507,
      "Ġhelp": 2508,
      "Ġformed": 2509,
      "ĠWith": 2510,
      "Ġ1996": 2511,
      "enc": 2512,
      "Ġtrack": 2513,
      "Ġmeet": 2514,
      "be": 2515,
      "ula": 2516,
      "Ġweek": 2517,
      "Ġz": 2518,
      "Ġoffice": 2519,
      "Ġdata": 2520,
      "Ġless": 2521,
      "Ġmother": 2522,
      "ĠFranc": 2523,
      "23": 2524,
      "ĠGreat": 2525,
      "Ġguitar": 2526,
      "ĠBay": 2527,
      "ĠOp": 2528,
      "ĠAlex": 2529,
      "Ġdiv": 2530,
      "Ġbirth": 2531,
      "Ġtradition": 2532,
      "Ġgood": 2533,
      "Ġparticular": 2534,
      "ĠZeal": 2535,
      "ĠItalian": 2536,
      "aker": 2537,
      "Ġreported": 2538,
      "Ġlaun": 2539,
      "ĠDon": 2540,
      "Ġworking": 2541,
      "Ġhous": 2542,
      "ĠAfrica": 2543,
      "iting": 2544,
      "ither": 2545,
      "ĠWestern": 2546,
      "duction": 2547,
      "ĠFilm": 2548,
      "Ġgrow": 2549,
      "Ġavail": 2550,
      "Ġmaking": 2551,
      "ĠCong": 2552,
      "Ġphot": 2553,
      "||": 2554,
      "edy": 2555,
      "Ġoffer": 2556,
      "ĠRepublic": 2557,
      "ĠGreen": 2558,
      "ĠZealand": 2559,
      "Ġtyp": 2560,
      "rey": 2561,
      "rig": 2562,
      "iers": 2563,
      "Ġschools": 2564,
      "Ġfund": 2565,
      "Ġ=": 2566,
      "hi": 2567,
      "roll": 2568,
      "Ġarr": 2569,
      "ĠMet": 2570,
      "Ġfail": 2571,
      "cks": 2572,
      "Eng": 2573,
      "Ġphys": 2574,
      "ĠCharles": 2575,
      "Ġ1970": 2576,
      "ĠScott": 2577,
      "Ġhuman": 2578,
      "cle": 2579,
      "cial": 2580,
      "ably": 2581,
      "Ġshould": 2582,
      "ertain": 2583,
      "itted": 2584,
      "ĠVirgin": 2585,
      "ĠLouis": 2586,
      "Ġlive": 2587,
      "imately": 2588,
      "):": 2589,
      "isted": 2590,
      "ola": 2591,
      "ades": 2592,
      "Ġdoc": 2593,
      "ala": 2594,
      "iding": 2595,
      "Ġ1997": 2596,
      "Ġvict": 2597,
      "ĠCap": 2598,
      "Ġothers": 2599,
      "Ġlanguage": 2600,
      "idae": 2601,
      "Ġ185": 2602,
      "Ġarchite": 2603,
      "Ġrul": 2604,
      "sy": 2605,
      "Ġdoes": 2606,
      "Ġcast": 2607,
      "24": 2608,
      "ication": 2609,
      "ras": 2610,
      "Ġmar": 2611,
      "ĠCommun": 2612,
      "oney": 2613,
      "ĠGold": 2614,
      "aut": 2615,
      "reland": 2616,
      "Ġrock": 2617,
      "Ġmater": 2618,
      "Ġartist": 2619,
      "Ġrev": 2620,
      "Ġemploy": 2621,
      "Ġindepend": 2622,
      "ensive": 2623,
      "go": 2624,
      "Ġhimself": 2625,
      "azine": 2626,
      "most": 2627,
      "Ġexample": 2628,
      "stro": 2629,
      "Ã¤": 2630,
      "Ġground": 2631,
      "viron": 2632,
      "ĠRussian": 2633,
      "band": 2634,
      "Ġmedal": 2635,
      "alls": 2636,
      "here": 2637,
      "Ġstar": 2638,
      "lor": 2639,
      "ĠJew": 2640,
      "atives": 2641,
      "Ġdecl": 2642,
      "ena": 2643,
      "eph": 2644,
      "ĠVol": 2645,
      "ospital": 2646,
      "Ġrecogn": 2647,
      "Ġbody": 2648,
      "Ġdi": 2649,
      "ude": 2650,
      "ume": 2651,
      "ĠMac": 2652,
      "olf": 2653,
      "usical": 2654,
      "Ġmodern": 2655,
      "ened": 2656,
      "ĠCarol": 2657,
      "Ġcompanies": 2658,
      "Ġanim": 2659,
      "ĠSim": 2660,
      "ĠYear": 2661,
      "ada": 2662,
      "anding": 2663,
      "Ġdaughter": 2664,
      "aly": 2665,
      "Ġ50": 2666,
      "Sh": 2667,
      "ĠMinister": 2668,
      "ateg": 2669,
      "ĠKore": 2670,
      "ulated": 2671,
      "Ġlow": 2672,
      "Ġfire": 2673,
      "ware": 2674,
      "Ġacross": 2675,
      "ĠTexas": 2676,
      "ĠMer": 2677,
      "ĠChristian": 2678,
      "Ġmunicip": 2679,
      "Ġmot": 2680,
      "Ġbecom": 2681,
      "ĠUK": 2682,
      "ricket": 2683,
      "Ġblack": 2684,
      "anted": 2685,
      "Ġbuildings": 2686,
      "Ġstations": 2687,
      "leg": 2688,
      "ceed": 2689,
      "ĠCont": 2690,
      "ethod": 2691,
      "heast": 2692,
      "Ġaverage": 2693,
      "uz": 2694,
      "aying": 2695,
      "overnor": 2696,
      "ria": 2697,
      "Ġnever": 2698,
      "oice": 2699,
      "atre": 2700,
      "ĠMichael": 2701,
      "New": 2702,
      "Ġsports": 2703,
      "elt": 2704,
      "pite": 2705,
      "gress": 2706,
      "Ġet": 2707,
      "Ġhow": 2708,
      "Ġcampaign": 2709,
      "Ġtro": 2710,
      "Ġplaying": 2711,
      "ĠIm": 2712,
      "Ġ1995": 2713,
      "Ġ1992": 2714,
      "Ġeight": 2715,
      "Ġcle": 2716,
      "ĠTrans": 2717,
      "Ġder": 2718,
      "chie": 2719,
      "emor": 2720,
      "rael": 2721,
      "ĠPat": 2722,
      "This": 2723,
      "ĠWil": 2724,
      "Ġradio": 2725,
      "ux": 2726,
      "Ġavailable": 2727,
      "ĠCatholic": 2728,
      "Ġbelie": 2729,
      "Ġcross": 2730,
      "Ġepisode": 2731,
      "ĠWhite": 2732,
      "gen": 2733,
      "utes": 2734,
      "udd": 2735,
      "Ġlight": 2736,
      "26": 2737,
      "ducation": 2738,
      "Ġfree": 2739,
      "II": 2740,
      "uild": 2741,
      "ĠLeg": 2742,
      "Ġ1994": 2743,
      "Ġpaint": 2744,
      "ĠTom": 2745,
      "Ġliving": 2746,
      "27": 2747,
      "De": 2748,
      "oo": 2749,
      "Ġsepar": 2750,
      "ential": 2751,
      "ĠTer": 2752,
      "ĠPet": 2753,
      "Ġstrong": 2754,
      "ements": 2755,
      "ĠChinese": 2756,
      "ĠFrom": 2757,
      "rel": 2758,
      "Ġgradu": 2759,
      "Ġsuccessful": 2760,
      "ibrary": 2761,
      "time": 2762,
      "Ġ31": 2763,
      "28": 2764,
      "Ġinformation": 2765,
      "Ġalthough": 2766,
      "oviet": 2767,
      "ĠTor": 2768,
      "Ġfoc": 2769,
      "bour": 2770,
      "Ġqual": 2771,
      "ĠParis": 2772,
      "Ġperformed": 2773,
      "writ": 2774,
      "Ġstage": 2775,
      "airs": 2776,
      "iqu": 2777,
      "Ġfight": 2778,
      "ĠCro": 2779,
      "Ġide": 2780,
      ",\"": 2781,
      "atory": 2782,
      "ĠPenn": 2783,
      "Ġfemale": 2784,
      "Ġred": 2785,
      "ĠDemocrat": 2786,
      "ought": 2787,
      "Ġwinn": 2788,
      "iff": 2789,
      "Ġ1960": 2790,
      "ores": 2791,
      "Ġcost": 2792,
      "Ġassoci": 2793,
      "ĠDan": 2794,
      "aval": 2795,
      "ked": 2796,
      "ishop": 2797,
      "Ġaway": 2798,
      "km": 2799,
      "aves": 2800,
      "ids": 2801,
      "Ġkilled": 2802,
      "Ġdram": 2803,
      "ilities": 2804,
      "ockey": 2805,
      "elling": 2806,
      "Ġmonths": 2807,
      "ĠFrank": 2808,
      "Ind": 2809,
      "Ġacqu": 2810,
      "ĠDire": 2811,
      "Ġcondu": 2812,
      "head": 2813,
      "ĠSur": 2814,
      "vironment": 2815,
      "zil": 2816,
      "Ġperformance": 2817,
      "imate": 2818,
      "Ġgave": 2819,
      "ĠLat": 2820,
      "icated": 2821,
      "Ġprot": 2822,
      "ranch": 2823,
      "Ġtaken": 2824,
      "Ġconstruction": 2825,
      "hood": 2826,
      "ĠBill": 2827,
      "Ġplaces": 2828,
      "igned": 2829,
      "oz": 2830,
      "ura": 2831,
      "ĠVictor": 2832,
      "ĠInter": 2833,
      "idents": 2834,
      "ĠRev": 2835,
      "29": 2836,
      "Ġfinished": 2837,
      "aria": 2838,
      "itch": 2839,
      "ĠPeter": 2840,
      "Ġcirc": 2841,
      "andid": 2842,
      "serv": 2843,
      "Ġcour": 2844,
      "Ġfollowed": 2845,
      "Ġshows": 2846,
      "Ġincludes": 2847,
      "embly": 2848,
      "Ġpolitician": 2849,
      "Ġcontract": 2850,
      "Ge": 2851,
      "Ġartists": 2852,
      "Ġ1993": 2853,
      "Ġestablishments": 2854,
      "Ġfeatures": 2855,
      "asc": 2856,
      "Sc": 2857,
      "Ġbooks": 2858,
      "Ġtour": 2859,
      "utch": 2860,
      "AR": 2861,
      "Ġcapt": 2862,
      "ĠRichard": 2863,
      "lement": 2864,
      "ĠIreland": 2865,
      "ĠSpanish": 2866,
      "Ġinj": 2867,
      "vey": 2868,
      "ĠLake": 2869,
      "ĠFlor": 2870,
      "Ġmaterial": 2871,
      "Ġdev": 2872,
      "ificant": 2873,
      "ella": 2874,
      "Ġrelig": 2875,
      "icago": 2876,
      "ĠSmith": 2877,
      "Ġagre": 2878,
      "Ġfront": 2879,
      "Ġdesigned": 2880,
      "ĠBas": 2881,
      "Ġattempt": 2882,
      "ano": 2883,
      "ita": 2884,
      "ĠHenry": 2885,
      "ams": 2886,
      "ĠDay": 2887,
      "Ġgoal": 2888,
      "Ġ#": 2889,
      "Ġjournal": 2890,
      "Ġmust": 2891,
      "Ġimpro": 2892,
      "At": 2893,
      "Ġrank": 2894,
      "Ġaccess": 2895,
      "ĠCons": 2896,
      "Ġlab": 2897,
      "oms": 2898,
      "ĠKh": 2899,
      "Ġsele": 2900,
      "Ġput": 2901,
      "Ġmarket": 2902,
      "fficial": 2903,
      "gian": 2904,
      "ĠFore": 2905,
      "Ġoriginally": 2906,
      "ications": 2907,
      "Ġplan": 2908,
      "Ġ1991": 2909,
      "Ġonce": 2910,
      "Ġassist": 2911,
      "oma": 2912,
      "Ġhealth": 2913,
      "incip": 2914,
      "och": 2915,
      "ĠLos": 2916,
      "Ġtourn": 2917,
      "ĠSant": 2918,
      "ny": 2919,
      "Ġstudy": 2920,
      "Ġpress": 2921,
      "hest": 2922,
      "Ġawarded": 2923,
      "60": 2924,
      "erous": 2925,
      "Ġ40": 2926,
      "nder": 2927,
      "Ġsound": 2928,
      "ado": 2929,
      "Ġtest": 2930,
      "ĠMel": 2931,
      "Ġregular": 2932,
      "istan": 2933,
      "ilies": 2934,
      "Early": 2935,
      "ror": 2936,
      "mb": 2937,
      "aged": 2938,
      "Ġfeatured": 2939,
      "Ġviol": 2940,
      "urity": 2941,
      "aps": 2942,
      "ĠHam": 2943,
      "ĠMass": 2944,
      "Ġ184": 2945,
      "English": 2946,
      "Ġremained": 2947,
      "Ġmix": 2948,
      "Ġcivil": 2949,
      "Ġforces": 2950,
      "Ġsil": 2951,
      "Ġmodel": 2952,
      "ource": 2953,
      "vert": 2954,
      "Ġlargest": 2955,
      "Ġcy": 2956,
      "ĠHistory": 2957,
      "ĠForce": 2958,
      "ems": 2959,
      "Ġseven": 2960,
      "people": 2961,
      "ĠChampionships": 2962,
      "rip": 2963,
      "ĠBur": 2964,
      "sec": 2965,
      "olk": 2966,
      "eep": 2967,
      "uter": 2968,
      "icy": 2969,
      "ĠWomen": 2970,
      "ĠBen": 2971,
      "Ġill": 2972,
      "road": 2973,
      "ĠSuper": 2974,
      "inals": 2975,
      "Ġbar": 2976,
      "ĠVirginia": 2977,
      "aching": 2978,
      "rim": 2979,
      "Ġjud": 2980,
      "earch": 2981,
      "Ġaircraft": 2982,
      "ĠTo": 2983,
      "Ġtraining": 2984,
      "Ġmount": 2985,
      "igan": 2986,
      "ios": 2987,
      "Ã¨": 2988,
      "kn": 2989,
      "ĠHill": 2990,
      "ites": 2991,
      "Äģ": 2992,
      "Ġenc": 2993,
      "ĠCamp": 2994,
      "ĠSwed": 2995,
      "ĠWin": 2996,
      "Ġsignificant": 2997,
      "ĠBut": 2998,
      "aches": 2999,
      "Ġleading": 3000,
      "Ġseen": 3001,
      "ugby": 3002,
      "For": 3003,
      "190": 3004,
      "Ġproble": 3005,
      "Ġcourt": 3006,
      "Ġthroughout": 3007,
      "Notes": 3008,
      "yp": 3009,
      "Ġdou": 3010,
      "80": 3011,
      "Ġdam": 3012,
      "Ġsen": 3013,
      "ĠEmp": 3014,
      "ylvan": 3015,
      "Ġrights": 3016,
      "Ġliter": 3017,
      "ĠUp": 3018,
      "Ġsinger": 3019,
      "annel": 3020,
      "Ġwid": 3021,
      "left": 3022,
      "Ġearl": 3023,
      "play": 3024,
      "aught": 3025,
      "ender": 3026,
      "Ġreb": 3027,
      "ĠOb": 3028,
      "AS": 3029,
      "ĠMa": 3030,
      "ĠĠĠĠĠĠĠĠ": 3031,
      "istics": 3032,
      "unk": 3033,
      "Ġearn": 3034,
      "Ġmedia": 3035,
      "Ġtransl": 3036,
      "Ġpolice": 3037,
      "Ġintroduced": 3038,
      "ĠDel": 3039,
      "Ġexist": 3040,
      "Wh": 3041,
      "arts": 3042,
      "\"|": 3043,
      "Ġsugg": 3044,
      "ĠCommission": 3045,
      "Ġinvolved": 3046,
      "order": 3047,
      "Te": 3048,
      "ĠNavy": 3049,
      "Ġcountries": 3050,
      "Ġwhite": 3051,
      "Ġcou": 3052,
      "Ġ:": 3053,
      "ving": 3054,
      "ĠRob": 3055,
      "Ġscored": 3056,
      "uture": 3057,
      "Con": 3058,
      "TV": 3059,
      "Ġentire": 3060,
      "ulty": 3061,
      "uns": 3062,
      "Ġexecut": 3063,
      "ĠOrder": 3064,
      "Ġtre": 3065,
      "Ġeventually": 3066,
      "Ġtreat": 3067,
      "iences": 3068,
      "Ġgold": 3069,
      "ift": 3070,
      "Ġrespons": 3071,
      "Ġable": 3072,
      "atal": 3073,
      "ufact": 3074,
      "Ġsem": 3075,
      "Ġreplaced": 3076,
      "Ġ1988": 3077,
      "Ġsubsequ": 3078,
      "cher": 3079,
      "Ġspace": 3080,
      "ĠSaint": 3081,
      "ĠPlay": 3082,
      "ĠArts": 3083,
      "Ġlisted": 3084,
      "Ġpast": 3085,
      "Ġprivate": 3086,
      "ĠOl": 3087,
      "ĠMexico": 3088,
      "ylvania": 3089,
      "ĠCast": 3090,
      "Ġbi": 3091,
      "Ġcurrently": 3092,
      "ĠItaly": 3093,
      "Ġ1989": 3094,
      "Ġhousehold": 3095,
      "Ġtransfer": 3096,
      "ĠSecond": 3097,
      "ĠRock": 3098,
      "lant": 3099,
      "ĠScot": 3100,
      "ĠIsrael": 3101,
      "Ã³n": 3102,
      "Ġadded": 3103,
      "Ġcollege": 3104,
      "ĠChicago": 3105,
      "Ġvia": 3106,
      "ĠJust": 3107,
      "Ġwriter": 3108,
      "orpor": 3109,
      "text": 3110,
      "Ġstates": 3111,
      "List": 3112,
      "asing": 3113,
      "ĠGo": 3114,
      "Ġcompetition": 3115,
      "Ġcentral": 3116,
      "ribution": 3117,
      "Äĩ": 3118,
      "retary": 3119,
      "min": 3120,
      "Ġstated": 3121,
      "za": 3122,
      "ĠKn": 3123,
      "Ġaud": 3124,
      "iro": 3125,
      "Ġsurv": 3126,
      "ability": 3127,
      "Ġwind": 3128,
      "Ġleast": 3129,
      "umm": 3130,
      "ĠPan": 3131,
      "ĠÐ": 3132,
      "Ġran": 3133,
      "mercial": 3134,
      "Ġboard": 3135,
      "ĠSqu": 3136,
      "Ġbasketball": 3137,
      "Ġcommand": 3138,
      "Ġser": 3139,
      "Ġcandid": 3140,
      "FC": 3141,
      "Ġabove": 3142,
      "Ġrange": 3143,
      "ĠAngeles": 3144,
      "Ġwriters": 3145,
      "ĠFestival": 3146,
      "Åį": 3147,
      "ĠGra": 3148,
      "ĠGod": 3149,
      "Ġresults": 3150,
      "ĠParliament": 3151,
      "ĠIll": 3152,
      ".)": 3153,
      "Ġactress": 3154,
      "ĠMus": 3155,
      "Ġdiscover": 3156,
      "ĠHistoric": 3157,
      "Ġrespect": 3158,
      "rup": 3159,
      "ĠProvince": 3160,
      "ĠMin": 3161,
      "Ġcritic": 3162,
      "Ġeither": 3163,
      "sych": 3164,
      "rial": 3165,
      "iano": 3166,
      "face": 3167,
      "Ġfourth": 3168,
      "porary": 3169,
      "Ġunits": 3170,
      "yr": 3171,
      "Ġ(\"": 3172,
      "Ġclose": 3173,
      "ples": 3174,
      "Ġsch": 3175,
      "stant": 3176,
      "ĠCarl": 3177,
      "Ġget": 3178,
      "ĠDu": 3179,
      "Ġvocals": 3180,
      "eated": 3181,
      "Ġfig": 3182,
      "Ġloss": 3183,
      "Career": 3184,
      "Ġprovided": 3185,
      "medi": 3186,
      "ĠCommittee": 3187,
      "oke": 3188,
      "Ġbroadcast": 3189,
      "oys": 3190,
      "Ġdegree": 3191,
      "ĠMr": 3192,
      "ription": 3193,
      "ĠMil": 3194,
      "Ġpur": 3195,
      "189": 3196,
      "Ġchange": 3197,
      "Ġupon": 3198,
      "bb": 3199,
      "Ġcop": 3200,
      "Ġsubject": 3201,
      "2010": 3202,
      "ask": 3203,
      "sylvania": 3204,
      ");": 3205,
      "iana": 3206,
      "FA": 3207,
      "ĠWales": 3208,
      "Ġtravel": 3209,
      "ĠOff": 3210,
      "sk": 3211,
      "istic": 3212,
      "rought": 3213,
      "ibl": 3214,
      "uty": 3215,
      "hire": 3216,
      "ply": 3217,
      "ĠFlorida": 3218,
      "Ġhom": 3219,
      "Ph": 3220,
      "Ġusually": 3221,
      "ĠGeorg": 3222,
      "Ġinterest": 3223,
      "ĠWhile": 3224,
      "Ġexpress": 3225,
      "sel": 3226,
      "ĠĊĊ": 3227,
      "ĠSoviet": 3228,
      "ste": 3229,
      "ĠDo": 3230,
      "ĠPre": 3231,
      "Ġfav": 3232,
      "ua": 3233,
      "Le": 3234,
      "erve": 3235,
      "Ġachie": 3236,
      "...": 3237,
      "ients": 3238,
      "Ġkey": 3239,
      "ye": 3240,
      "Ġplant": 3241,
      "shire": 3242,
      "bur": 3243,
      "Ġdocument": 3244,
      "ĠCarolina": 3245,
      "known": 3246,
      "Ġtype": 3247,
      "ĠCongress": 3248,
      "Ġsaw": 3249,
      "Ġreached": 3250,
      "ĠPublic": 3251,
      "board": 3252,
      "Ġstruct": 3253,
      "well": 3254,
      "Ġlearn": 3255,
      "Ġcenter": 3256,
      "Ġaccom": 3257,
      "Ġoccur": 3258,
      "Ġcontribut": 3259,
      "ises": 3260,
      "ires": 3261,
      "Ġ1987": 3262,
      "va": 3263,
      "Ġnomin": 3264,
      "Ġmultip": 3265,
      "Ġmissing": 3266,
      "ĠÂ": 3267,
      "Ġmeas": 3268,
      "Ġrailway": 3269,
      "ĠGovernment": 3270,
      "35": 3271,
      "rative": 3272,
      "Ġprem": 3273,
      "Ġaction": 3274,
      "ĠAnn": 3275,
      "adium": 3276,
      "ĠLand": 3277,
      "eds": 3278,
      "stitution": 3279,
      "ĠScience": 3280,
      "ption": 3281,
      "Ġplaced": 3282,
      "There": 3283,
      "Ġexhib": 3284,
      "Ġpot": 3285,
      "Ġmean": 3286,
      "lam": 3287,
      "Sp": 3288,
      "Ad": 3289,
      "ĠTechn": 3290,
      "eleb": 3291,
      "ĠSome": 3292,
      "Ġnight": 3293,
      "Ġseasons": 3294,
      "Ġcharacters": 3295,
      "ĠAccording": 3296,
      "ĠIts": 3297,
      "ero": 3298,
      "ĠBrown": 3299,
      "uan": 3300,
      "ength": 3301,
      "gl": 3302,
      "Ġarg": 3303,
      "Ġcapital": 3304,
      "ping": 3305,
      "azz": 3306,
      "Ġminist": 3307,
      "Ġknow": 3308,
      "arily": 3309,
      "ĠAwards": 3310,
      "ĠMark": 3311,
      "mun": 3312,
      "ĠClass": 3313,
      "Ġmethod": 3314,
      "lim": 3315,
      "ca": 3316,
      "Ġapprox": 3317,
      "Ġ1986": 3318,
      "Ġdu": 3319,
      "Ġche": 3320,
      "Ġ1984": 3321,
      "ĠMur": 3322,
      "ĠCount": 3323,
      "Ġdestro": 3324,
      "Ġtournament": 3325,
      "ĠRussia": 3326,
      "70": 3327,
      "Ġsex": 3328,
      "ta": 3329,
      "ception": 3330,
      "atriate": 3331,
      "ww": 3332,
      "Ġstre": 3333,
      "ĠService": 3334,
      "ĠStar": 3335,
      "Ġdecided": 3336,
      "Ġnatural": 3337,
      "ĠBrazil": 3338,
      "Ġchampionship": 3339,
      "Films": 3340,
      "Ġmass": 3341,
      "ĠOh": 3342,
      "ĠPennsylvania": 3343,
      "chan": 3344,
      "amily": 3345,
      "ette": 3346,
      "fic": 3347,
      "den": 3348,
      "Ġ1950": 3349,
      "ĠEr": 3350,
      "abit": 3351,
      "ultural": 3352,
      "ulture": 3353,
      "eck": 3354,
      "stra": 3355,
      "ection": 3356,
      "ĠDen": 3357,
      "Ġpain": 3358,
      "str": 3359,
      "aled": 3360,
      "FL": 3361,
      "Ġpoet": 3362,
      "ĠSir": 3363,
      "Ġmur": 3364,
      "ublican": 3365,
      "owers": 3366,
      "Ġaccept": 3367,
      "ario": 3368,
      "Ġleader": 3369,
      "Ġattended": 3370,
      "Ġfif": 3371,
      "Ġcreat": 3372,
      "Ġactor": 3373,
      "Ġaccount": 3374,
      "Ġsection": 3375,
      "ĠIrish": 3376,
      "ometimes": 3377,
      "Ġriver": 3378,
      "Ġprovide": 3379,
      "ĠTour": 3380,
      "Ġdivision": 3381,
      "ĠFound": 3382,
      "see": 3383,
      "Ġreve": 3384,
      "Ġeffort": 3385,
      "Ġwhose": 3386,
      "ĠPac": 3387,
      "Ġparts": 3388,
      "ato": 3389,
      "uments": 3390,
      "Ġdraw": 3391,
      "Ġinstead": 3392,
      "Ġfamilies": 3393,
      "Ġplays": 3394,
      "Ġoccup": 3395,
      "based": 3396,
      "Ġtax": 3397,
      "BA": 3398,
      "anda": 3399,
      "Ġ1985": 3400,
      "Ġparent": 3401,
      "Ġedition": 3402,
      "\")": 3403,
      "inent": 3404,
      "Ġfar": 3405,
      "reme": 3406,
      "ĠMod": 3407,
      "Ġpreviously": 3408,
      "ĠEmpire": 3409,
      "ansas": 3410,
      "ĠRh": 3411,
      "ĠLiber": 3412,
      "illa": 3413,
      "Ġactive": 3414,
      "Ġscient": 3415,
      "ĠRos": 3416,
      "Ġmovement": 3417,
      "ĠOld": 3418,
      "ĠNorthern": 3419,
      "Ġcensus": 3420,
      "Ġculture": 3421,
      "ĠArab": 3422,
      "Ġdefeated": 3423,
      "Ġfarm": 3424,
      "Ġstudio": 3425,
      "aud": 3426,
      "Ġrelationship": 3427,
      "Ġsystems": 3428,
      "Ġgrand": 3429,
      "elled": 3430,
      "Ġpred": 3431,
      "Ġneigh": 3432,
      "Ġbur": 3433,
      "ĠSil": 3434,
      "gent": 3435,
      "Ġrather": 3436,
      "Ġplann": 3437,
      "ĠFin": 3438,
      "Ġsize": 3439,
      "Ġste": 3440,
      "ĠMos": 3441,
      "ension": 3442,
      "igital": 3443,
      "Ġnorthern": 3444,
      "oring": 3445,
      "cel": 3446,
      "Ġnetwork": 3447,
      "urt": 3448,
      "la": 3449,
      "wan": 3450,
      "ollowing": 3451,
      "Ġpark": 3452,
      "ingu": 3453,
      "clus": 3454,
      "ongs": 3455,
      "Ġdeal": 3456,
      "Ġlower": 3457,
      "Ġsouthern": 3458,
      "Ġreading": 3459,
      "Ġorganiz": 3460,
      "Ġobject": 3461,
      "ĠColumb": 3462,
      "ampion": 3463,
      "ĠOther": 3464,
      "ora": 3465,
      "icro": 3466,
      "Ġwinning": 3467,
      "Ġcricket": 3468,
      "ergy": 3469,
      "ends": 3470,
      "Ġbehind": 3471,
      "pan": 3472,
      "Ġproducer": 3473,
      "Ġmanufact": 3474,
      "Ġsingles": 3475,
      "ĠTro": 3476,
      "Ġmusical": 3477,
      "Ġpurch": 3478,
      "ĠJun": 3479,
      "Ġbrought": 3480,
      "ĠRegister": 3481,
      "pecially": 3482,
      "Ġcoast": 3483,
      "position": 3484,
      "iger": 3485,
      "Ġforce": 3486,
      "Ġpers": 3487,
      "ĠTwo": 3488,
      "ĠGall": 3489,
      "Ġoutside": 3490,
      "Ġcut": 3491,
      "ils": 3492,
      "ĠMill": 3493,
      "Ġindustry": 3494,
      "ĠBoard": 3495,
      "Person": 3496,
      "urb": 3497,
      "ĠAssembly": 3498,
      "Ġpossible": 3499,
      "Ġprimary": 3500,
      "Ġinvestig": 3501,
      "imb": 3502,
      "Ġge": 3503,
      "ady": 3504,
      "ĠJoseph": 3505,
      "ati": 3506,
      "Ġlik": 3507,
      "ĠLove": 3508,
      "ĠProfess": 3509,
      "NE": 3510,
      "Ġcollection": 3511,
      "Ġbank": 3512,
      "Ġfall": 3513,
      "ĠFort": 3514,
      "aring": 3515,
      "Ġrepresented": 3516,
      "ĠSpace": 3517,
      "33": 3518,
      "ali": 3519,
      "2000": 3520,
      "ĠSeries": 3521,
      "Ġ1983": 3522,
      "ersey": 3523,
      "orse": 3524,
      "Ġorganization": 3525,
      "During": 3526,
      "ĠWood": 3527,
      "Ass": 3528,
      "iga": 3529,
      "Ġcare": 3530,
      "ĠOper": 3531,
      "Ġfrequ": 3532,
      "Ġprison": 3533,
      "alled": 3534,
      "90": 3535,
      "Ġruns": 3536,
      "ĠBattle": 3537,
      "ĠSpain": 3538,
      "Ġnewsp": 3539,
      "Ġalmost": 3540,
      "ĠLu": 3541,
      "Ġi": 3542,
      "ounter": 3543,
      "Ġconv": 3544,
      "Ġhard": 3545,
      "NA": 3546,
      "Ġhit": 3547,
      "ĠGreek": 3548,
      "Ġregard": 3549,
      "isco": 3550,
      "Ġgirl": 3551,
      "irm": 3552,
      "ancial": 3553,
      "ĠSk": 3554,
      "Ġsus": 3555,
      "Ġesc": 3556,
      "ĠMartin": 3557,
      "aine": 3558,
      "Ġacadem": 3559,
      "Ġdefeat": 3560,
      "ĠSun": 3561,
      "Ġisland": 3562,
      "like": 3563,
      "Ġ1982": 3564,
      "John": 3565,
      "Ġwriting": 3566,
      "Ġcases": 3567,
      "Ġstructure": 3568,
      "Ġking": 3569,
      "mark": 3570,
      "awa": 3571,
      "Ġclosed": 3572,
      "ider": 3573,
      "Ġchanged": 3574,
      "Ġallowed": 3575,
      "Ġgoals": 3576,
      "Ġended": 3577,
      "Ġfunction": 3578,
      "Ġneg": 3579,
      "inary": 3580,
      "Ġwood": 3581,
      "Ġscience": 3582,
      "Ġmagazine": 3583,
      "ĠChief": 3584,
      "wer": 3585,
      "ĠSer": 3586,
      "itors": 3587,
      "etts": 3588,
      "Ġphil": 3589,
      "Ġstop": 3590,
      "venue": 3591,
      "mond": 3592,
      "Ġstudies": 3593,
      "Ġben": 3594,
      "Ġden": 3595,
      "Ġdeterm": 3596,
      "Ġfood": 3597,
      "Ġball": 3598,
      "oir": 3599,
      "esc": 3600,
      "Ġfootballer": 3601,
      "All": 3602,
      "overs": 3603,
      "Ġ1972": 3604,
      "ĠEducation": 3605,
      "Ġshot": 3606,
      "ĠBus": 3607,
      "lying": 3608,
      "Ġpersonal": 3609,
      "Ġ1979": 3610,
      "Ġbeginning": 3611,
      "Ġtext": 3612,
      "ĠGar": 3613,
      "cient": 3614,
      "75": 3615,
      "Ġschol": 3616,
      "isions": 3617,
      "ĠResearch": 3618,
      "ĠHaw": 3619,
      "itiz": 3620,
      "Ġprincip": 3621,
      "ĠHa": 3622,
      "ĠFred": 3623,
      "airman": 3624,
      "ĠValley": 3625,
      "ipl": 3626,
      "Ġoperations": 3627,
      "ĠAtlant": 3628,
      "ĠTimes": 3629,
      "Ġcred": 3630,
      "velopment": 3631,
      "Ġtransport": 3632,
      "Aust": 3633,
      "ĠSpec": 3634,
      "ĠDou": 3635,
      "Ġindependent": 3636,
      "ĠFre": 3637,
      "Ġlaunched": 3638,
      "Ġbelow": 3639,
      "ĠSub": 3640,
      "ih": 3641,
      "fect": 3642,
      "language": 3643,
      "cing": 3644,
      "enth": 3645,
      "Ġmer": 3646,
      "Ġobserv": 3647,
      "Ġconstru": 3648,
      "Ġterrit": 3649,
      "Ġtaking": 3650,
      "Ġapproximately": 3651,
      "Ġtowards": 3652,
      "ennis": 3653,
      "Ġdestroy": 3654,
      "press": 3655,
      "38": 3656,
      "ĠCD": 3657,
      "Ġever": 3658,
      "ĠInt": 3659,
      "inated": 3660,
      "Ġaccording": 3661,
      "oid": 3662,
      "Ġowned": 3663,
      "ĠOut": 3664,
      "Can": 3665,
      "ibility": 3666,
      "Ġmatches": 3667,
      "rich": 3668,
      "Ġpay": 3669,
      "ĠDef": 3670,
      "het": 3671,
      "ĠCross": 3672,
      "Ġplat": 3673,
      "ĠYoung": 3674,
      "ĠEngine": 3675,
      "Ġitself": 3676,
      "Ġveh": 3677,
      "45": 3678,
      "ĠHot": 3679,
      "bon": 3680,
      "Ġwhom": 3681,
      "Ġbreak": 3682,
      "Ġself": 3683,
      "ĠJim": 3684,
      "Ġwoman": 3685,
      "ĠHow": 3686,
      "Ġ1976": 3687,
      "Ġcomplet": 3688,
      "36": 3689,
      "ĠOx": 3690,
      "SA": 3691,
      "ros": 3692,
      "inois": 3693,
      "Ġremov": 3694,
      "ko": 3695,
      "Ġcomplex": 3696,
      "Ã§": 3697,
      "iy": 3698,
      "Ġminor": 3699,
      "Ġconcern": 3700,
      "ĠHon": 3701,
      "mm": 3702,
      "Ġstaff": 3703,
      "ĠMo": 3704,
      "Ġcal": 3705,
      "Ġcommission": 3706,
      "She": 3707,
      "action": 3708,
      "ao": 3709,
      "ID": 3710,
      "igg": 3711,
      "ĠCam": 3712,
      "ĠTeam": 3713,
      "Ġcommercial": 3714,
      "ĠFC": 3715,
      "achus": 3716,
      "Ġ1981": 3717,
      "Ġdrama": 3718,
      "Ġsat": 3719,
      "Ġbattle": 3720,
      "Ġdate": 3721,
      "win": 3722,
      "ĠLee": 3723,
      "uffer": 3724,
      "ols": 3725,
      "Ġarmy": 3726,
      "Ġnar": 3727,
      "Ġceleb": 3728,
      "bury": 3729,
      "Ġsoon": 3730,
      "Ġhigher": 3731,
      "ĠEv": 3732,
      "Ġtraditional": 3733,
      "Ġlittle": 3734,
      "Ġespecially": 3735,
      "ĠCivil": 3736,
      "Ġscreen": 3737,
      "with": 3738,
      "ĠLife": 3739,
      "Ġtoo": 3740,
      "Ġbox": 3741,
      "Ġrequired": 3742,
      "ĠCamb": 3743,
      "Ġnames": 3744,
      "ences": 3745,
      "ĠBank": 3746,
      "Ġissues": 3747,
      "ĠSpr": 3748,
      "inet": 3749,
      "Ġmanager": 3750,
      "usband": 3751,
      "Ġlook": 3752,
      "Ġadditional": 3753,
      "ĠIran": 3754,
      "Ġspent": 3755,
      "Ġhighest": 3756,
      "ĠBritain": 3757,
      "erry": 3758,
      "Ġfuture": 3759,
      "Ġrelated": 3760,
      "pected": 3761,
      "king": 3762,
      "Ġsummer": 3763,
      "oston": 3764,
      "Ġquest": 3765,
      "Ġ1968": 3766,
      "ify": 3767,
      "Gen": 3768,
      "pon": 3769,
      "ĠPak": 3770,
      "ands": 3771,
      "Ġscore": 3772,
      "Ġlet": 3773,
      "ĠVi": 3774,
      "ĠSocial": 3775,
      "ĠBor": 3776,
      "acing": 3777,
      "Ġ1978": 3778,
      "ready": 3779,
      "Ġstandard": 3780,
      "34": 3781,
      "ĠOhio": 3782,
      "Ġofficer": 3783,
      "ĠIII": 3784,
      "Ġmeans": 3785,
      "Ġfocus": 3786,
      "Ġ1974": 3787,
      "Bl": 3788,
      "Ġroute": 3789,
      "37": 3790,
      "ĠSar": 3791,
      "Ġmoney": 3792,
      "Brit": 3793,
      "ĠSouthern": 3794,
      "Ġ1945": 3795,
      "ĠDemocratic": 3796,
      "Ġstri": 3797,
      "enced": 3798,
      "ĠDirector": 3799,
      "alle": 3800,
      "esh": 3801,
      "ĠMichigan": 3802,
      "ĠBul": 3803,
      "Ġrad": 3804,
      "ĠInc": 3805,
      "achusetts": 3806,
      "acher": 3807,
      "Ġprof": 3808,
      "Ġlived": 3809,
      "state": 3810,
      "Ġnoted": 3811,
      "Ġdon": 3812,
      "Ġproperty": 3813,
      "Ġcounty": 3814,
      "ĠPoland": 3815,
      "Ġcontains": 3816,
      "ĠLuc": 3817,
      "ctive": 3818,
      "ĠJe": 3819,
      "arriage": 3820,
      "ĠSol": 3821,
      "arden": 3822,
      "ums": 3823,
      "ĠJud": 3824,
      "ĠBre": 3825,
      "ĠMen": 3826,
      "39": 3827,
      "obal": 3828,
      "Ġgenus": 3829,
      "2007": 3830,
      "Ġenvironment": 3831,
      "Ġmonth": 3832,
      "aka": 3833,
      "ĠJack": 3834,
      "National": 3835,
      "Ġ1975": 3836,
      "ĠEdward": 3837,
      "ook": 3838,
      "Ġstudent": 3839,
      "Ġsoft": 3840,
      "Ġappearance": 3841,
      "Ġsquad": 3842,
      "188": 3843,
      "vention": 3844,
      "iled": 3845,
      "kins": 3846,
      "rie": 3847,
      "aya": 3848,
      "change": 3849,
      "house": 3850,
      "ias": 3851,
      "Ġinterview": 3852,
      "emporary": 3853,
      "2009": 3854,
      "standing": 3855,
      "Ġpromot": 3856,
      "2011": 3857,
      "ĠMost": 3858,
      "ĠJersey": 3859,
      "ĠHel": 3860,
      "2008": 3861,
      "burgh": 3862,
      "ĠRepublican": 3863,
      "ĠAre": 3864,
      "Ġchief": 3865,
      "Ġmission": 3866,
      "Ġships": 3867,
      "Ġpractice": 3868,
      "Ġopening": 3869,
      "Ġmultiple": 3870,
      "Ġadop": 3871,
      "Ġunit": 3872,
      "ĠMah": 3873,
      "yan": 3874,
      "ĠRailway": 3875,
      "ĠAsian": 3876,
      "Ð°": 3877,
      "ĠAlthough": 3878,
      "Ġsometimes": 3879,
      "ĠRadio": 3880,
      "Ġsenior": 3881,
      "Ġcertain": 3882,
      "ĠStep": 3883,
      "Ġcome": 3884,
      "Ġprior": 3885,
      "ĠMat": 3886,
      "ees": 3887,
      "ĠQueen": 3888,
      "ĠLine": 3889,
      "Ġ1977": 3890,
      "Ġassociated": 3891,
      "Ġlocation": 3892,
      "Ġearlier": 3893,
      "ĠScotland": 3894,
      "Ġkeep": 3895,
      "Ġelections": 3896,
      "Ġrunning": 3897,
      "Ġgenerally": 3898,
      "ĠDutch": 3899,
      "Ġanal": 3900,
      "ĠNot": 3901,
      "emorial": 3902,
      "Pop": 3903,
      "Ġsurround": 3904,
      "oper": 3905,
      "Members": 3906,
      "ĠPacific": 3907,
      "emic": 3908,
      "Ġcentre": 3909,
      "ĠPrem": 3910,
      "Res": 3911,
      "Ġstructures": 3912,
      "ĠKent": 3913,
      "etic": 3914,
      "Ġ1940": 3915,
      "uten": 3916,
      "Ġtrade": 3917,
      "ĠJul": 3918,
      "anks": 3919,
      "down": 3920,
      "Ġ1973": 3921,
      "Year": 3922,
      "irt": 3923,
      "ĠNews": 3924,
      "ĠLong": 3925,
      "wa": 3926,
      "Ġsuper": 3927,
      "Ġdom": 3928,
      "rown": 3929,
      "2006": 3930,
      "ĠIllinois": 3931,
      "ĠJo": 3932,
      "Ġsuffer": 3933,
      "ĠLord": 3934,
      "Other": 3935,
      "Ġthus": 3936,
      "ima": 3937,
      "Ġactivities": 3938,
      "Ġemer": 3939,
      "ador": 3940,
      "Ġmanagement": 3941,
      "Ġstudied": 3942,
      "ĠPlaces": 3943,
      "Ġbass": 3944,
      "ĠAsia": 3945,
      "ira": 3946,
      "ĠRepresent": 3947,
      "ds": 3948,
      "rying": 3949,
      "Ġuses": 3950,
      "Ġentered": 3951,
      "Ġ1971": 3952,
      "ja": 3953,
      "Ġlength": 3954,
      "Ġer": 3955,
      "Ġeditor": 3956,
      "ĠPhilipp": 3957,
      "Ġpie": 3958,
      "ĠGovernor": 3959,
      "Ġselected": 3960,
      "Ġdecision": 3961,
      "tained": 3962,
      "background": 3963,
      "Ġhusband": 3964,
      "Ġvictory": 3965,
      "not": 3966,
      "Ġequip": 3967,
      "ĠBig": 3968,
      "Sports": 3969,
      "anded": 3970,
      "Med": 3971,
      "Ġ60": 3972,
      "Ġcourse": 3973,
      "ĠLibrary": 3974,
      "ĠAdm": 3975,
      "ctic": 3976,
      "Ġtrib": 3977,
      "Ġarran": 3978,
      "2012": 3979,
      "Ġens": 3980,
      "British": 3981,
      "ĠMassachusetts": 3982,
      "Ġretired": 3983,
      "teg": 3984,
      "ĠBase": 3985,
      "Ġemb": 3986,
      "Mar": 3987,
      "Ġfeature": 3988,
      "ĠSoc": 3989,
      "Ġincreased": 3990,
      "Ġmove": 3991,
      "Ġ1969": 3992,
      "Ġcaused": 3993,
      "Ġlegal": 3994,
      "Ġexam": 3995,
      "ĠBob": 3996,
      "ĠConference": 3997,
      "ĠVer": 3998,
      "Ġbecoming": 3999,
      "Ġtrain": 4000,
      "Ġalready": 4001,
      "ĠPortug": 4002,
      "Ġterms": 4003,
      "ĠOtt": 4004,
      "Ġlove": 4005,
      "iÄĩ": 4006,
      "Ġdiffic": 4007,
      "Ġseat": 4008,
      "ĠHealth": 4009,
      "Ġpoliticians": 4010,
      "ila": 4011,
      "igr": 4012,
      "Ġmedical": 4013,
      "Ġunion": 4014,
      "gypt": 4015,
      "amm": 4016,
      "Ġdepartment": 4017,
      "Ġimm": 4018,
      "Ġactors": 4019,
      "Ġgra": 4020,
      "ares": 4021,
      "ĠPeople": 4022,
      "adel": 4023,
      "Ġchanges": 4024,
      "Ġwestern": 4025,
      "Ġnumerous": 4026,
      "ĠOpen": 4027,
      "isation": 4028,
      "Ġpen": 4029,
      "Ġwide": 4030,
      "Ġolder": 4031,
      "Ġnews": 4032,
      "inem": 4033,
      "Ġ1930": 4034,
      "AC": 4035,
      "Ġsu": 4036,
      "Ġannual": 4037,
      "plement": 4038,
      "Ð¾": 4039,
      "ken": 4040,
      "Å¡": 4041,
      "add": 4042,
      "Ġmurder": 4043,
      "antry": 4044,
      "ela": 4045,
      "erem": 4046,
      "ĠOver": 4047,
      "Ġcust": 4048,
      "Ġbetter": 4049,
      "Ġissue": 4050,
      "ĠGeorgia": 4051,
      "Ġsaf": 4052,
      "Ġprograms": 4053,
      "ĠSystem": 4054,
      "Ġprob": 4055,
      "ĠRou": 4056,
      "ĠGal": 4057,
      "rief": 4058,
      "ĠInf": 4059,
      "Ġ1967": 4060,
      "bre": 4061,
      "Ġoperated": 4062,
      "AT": 4063,
      "Ġ1964": 4064,
      "Ġabs": 4065,
      "ulf": 4066,
      "Ġclubs": 4067,
      "Ġrap": 4068,
      "United": 4069,
      "Ġcollabor": 4070,
      "mission": 4071,
      "Ġquarter": 4072,
      "orporated": 4073,
      "asy": 4074,
      "Ġmajority": 4075,
      "ĠUk": 4076,
      "Ġfederal": 4077,
      "arters": 4078,
      "ĠHung": 4079,
      "Ġlines": 4080,
      "ĠJewish": 4081,
      "Ġlegisl": 4082,
      "Ġinitially": 4083,
      "ysis": 4084,
      "onia": 4085,
      "ĠBook": 4086,
      "ĠKong": 4087,
      "Ġthought": 4088,
      "eeks": 4089,
      "ĠJones": 4090,
      "ĠThat": 4091,
      "Se": 4092,
      "ĠDi": 4093,
      "Ġreligious": 4094,
      "cting": 4095,
      "omy": 4096,
      "Ġsea": 4097,
      "iance": 4098,
      "2013": 4099,
      "Ã±": 4100,
      "itation": 4101,
      "ograp": 4102,
      "ĠCoast": 4103,
      "Ġinstr": 4104,
      "irit": 4105,
      "Ġcompeted": 4106,
      "ĠFrancisco": 4107,
      "pts": 4108,
      "ucle": 4109,
      "2005": 4110,
      "ĠCle": 4111,
      "rison": 4112,
      "ĠPrince": 4113,
      "ĠBh": 4114,
      "Ġdrop": 4115,
      "ĠWeb": 4116,
      "inger": 4117,
      "Ġforest": 4118,
      "//": 4119,
      "Ġgener": 4120,
      "Ġinstitut": 4121,
      "ĠCentre": 4122,
      "Ġanti": 4123,
      "ĠTw": 4124,
      "ĠMP": 4125,
      "track": 4126,
      "Ġeconomic": 4127,
      "ĠLab": 4128,
      "ties": 4129,
      "31": 4130,
      "Ġcolon": 4131,
      "ĠWal": 4132,
      "Ġord": 4133,
      "ĠUr": 4134,
      "Ġ180": 4135,
      "Ġmunicipality": 4136,
      "Ġcomedy": 4137,
      "Ġindic": 4138,
      "Ġhum": 4139,
      "ĠSince": 4140,
      "Ġthreat": 4141,
      "org": 4142,
      "ĠJournal": 4143,
      "isher": 4144,
      "Ġcomplete": 4145,
      "ĠWilliams": 4146,
      "no": 4147,
      "ĠÅ": 4148,
      "ĠScottish": 4149,
      "ĠMatt": 4150,
      "ĠOk": 4151,
      "ĠTheatre": 4152,
      ":#": 4153,
      "abeth": 4154,
      "2014": 4155,
      "Ġarrest": 4156,
      "ĠOs": 4157,
      "Ġlimited": 4158,
      "Ġ35": 4159,
      "war": 4160,
      "ĠKe": 4161,
      "ulpt": 4162,
      "put": 4163,
      "mann": 4164,
      "Ġconsist": 4165,
      "Ġdra": 4166,
      "Ġhot": 4167,
      "Ġsister": 4168,
      "ĠĠĊ": 4169,
      "unn": 4170,
      "ĠBow": 4171,
      "bl": 4172,
      "pre": 4173,
      "Ġforced": 4174,
      "ĠBoston": 4175,
      "ĠMot": 4176,
      "Ġuniversity": 4177,
      "ĠOxford": 4178,
      "chen": 4179,
      "Ġdiscuss": 4180,
      "cean": 4181,
      "ĠSo": 4182,
      "ÅĤ": 4183,
      "stitu": 4184,
      "Ġcreate": 4185,
      "ĠUnder": 4186,
      "Ġded": 4187,
      "Ġtheory": 4188,
      "Ġhockey": 4189,
      "Ġserving": 4190,
      "ervation": 4191,
      "tra": 4192,
      "ĠEastern": 4193,
      "ĠRam": 4194,
      "Ġimmedi": 4195,
      "Ġpassed": 4196,
      "ĠGh": 4197,
      "ieuten": 4198,
      "Ġpil": 4199,
      "onse": 4200,
      "Ġlack": 4201,
      "ault": 4202,
      "ĠTim": 4203,
      "attal": 4204,
      "Ġstatus": 4205,
      "isk": 4206,
      "ube": 4207,
      "2004": 4208,
      "wide": 4209,
      "Or": 4210,
      "urban": 4211,
      "Ġsom": 4212,
      "IS": 4213,
      "Ġrecording": 4214,
      "ĠMiddle": 4215,
      "Ġ1920": 4216,
      "2015": 4217,
      "Ġfamous": 4218,
      "Ġcommunities": 4219,
      "span": 4220,
      "Ġremains": 4221,
      "ackson": 4222,
      "48": 4223,
      "Ġaltern": 4224,
      "itage": 4225,
      "Ġpercent": 4226,
      "riz": 4227,
      "ĠCorps": 4228,
      "BS": 4229,
      "ĠField": 4230,
      "aters": 4231,
      "ĠOffice": 4232,
      "ĠCreek": 4233,
      "Ġ1965": 4234,
      "Ġoccas": 4235,
      "Ġjob": 4236,
      "://": 4237,
      "osoph": 4238,
      "ĠFoundation": 4239,
      "ĠBC": 4240,
      "Ġdetail": 4241,
      "47": 4242,
      "Ġgive": 4243,
      "Ġsupported": 4244,
      "32": 4245,
      "ctors": 4246,
      "ĠColumbia": 4247,
      "Ġsequ": 4248,
      "Ġevidence": 4249,
      "Ġofficers": 4250,
      "ĠAz": 4251,
      "nam": 4252,
      "German": 4253,
      "ĠBet": 4254,
      "usc": 4255,
      "Ġclaimed": 4256,
      "Ġ1966": 4257,
      "ĠColle": 4258,
      "uge": 4259,
      "agn": 4260,
      "Ġshown": 4261,
      "reater": 4262,
      "Ġmuseum": 4263,
      "Ġexc": 4264,
      "Ġmostly": 4265,
      "Ġnine": 4266,
      "ĠJac": 4267,
      "Ġarm": 4268,
      "Ġgoing": 4269,
      "Ġhours": 4270,
      "Ġcouncil": 4271,
      "ĠJohnson": 4272,
      "University": 4273,
      "Ġincome": 4274,
      "ĠTime": 4275,
      "ci": 4276,
      "Ġfle": 4277,
      "aily": 4278,
      "Ġminutes": 4279,
      "umber": 4280,
      "Ġpresented": 4281,
      "Ġshoot": 4282,
      "ĠPost": 4283,
      "Be": 4284,
      ";\"": 4285,
      "outheast": 4286,
      "Ġword": 4287,
      "65": 4288,
      "Ġpolicy": 4289,
      "Ġtakes": 4290,
      "Ġbound": 4291,
      "Ġbomb": 4292,
      "Ġmeeting": 4293,
      "Ġopt": 4294,
      "Ġ1944": 4295,
      "ĠFed": 4296,
      "pose": 4297,
      "ĠTre": 4298,
      "bec": 4299,
      "Ġtechnology": 4300,
      "Ġmach": 4301,
      "ĠCr": 4302,
      "Ġparticularly": 4303,
      "stein": 4304,
      "izing": 4305,
      "Ġenergy": 4306,
      "Ġsubsequently": 4307,
      "akh": 4308,
      "imum": 4309,
      "ii": 4310,
      "phy": 4311,
      "Ġraised": 4312,
      "Ġcell": 4313,
      "Ġprofessor": 4314,
      "ĠDie": 4315,
      "ĠBang": 4316,
      "Ġforeign": 4317,
      "Ġlic": 4318,
      "bers": 4319,
      "ĠJr": 4320,
      "ĠVan": 4321,
      "Ġice": 4322,
      "ĠSecretary": 4323,
      "ledge": 4324,
      "ĠSat": 4325,
      "omer": 4326,
      "Ġhistorical": 4327,
      "Ġappears": 4328,
      "Am": 4329,
      "Ġchall": 4330,
      "apers": 4331,
      "AF": 4332,
      "Ġdise": 4333,
      "Ġoverall": 4334,
      "ĠJean": 4335,
      "ĠSand": 4336,
      "Ġlonger": 4337,
      "yer": 4338,
      "ĠStan": 4339,
      "ĠBlue": 4340,
      "ĠAlbert": 4341,
      "ĠMore": 4342,
      "Is": 4343,
      "Further": 4344,
      "Ġweeks": 4345,
      "ĠTem": 4346,
      "Ġplatform": 4347,
      "ips": 4348,
      "onic": 4349,
      "ĠDis": 4350,
      "una": 4351,
      "ĠSea": 4352,
      "ĠEll": 4353,
      "ĠMajor": 4354,
      "ĠLatin": 4355,
      "Ġrate": 4356,
      "iring": 4357,
      "ieutenant": 4358,
      "vis": 4359,
      "Ġmiddle": 4360,
      "Ġdescent": 4361,
      "encies": 4362,
      "ĠGood": 4363,
      "ĠPolish": 4364,
      "Ġpsych": 4365,
      "Ġgovern": 4366,
      "ĠCO": 4367,
      "ĠMcC": 4368,
      "Ġpersonnel": 4369,
      "Ã¡n": 4370,
      "ayer": 4371,
      "99": 4372,
      "ĠPo": 4373,
      "ĠManag": 4374,
      "sen": 4375,
      "Ġnorm": 4376,
      "Ġmem": 4377,
      "Ġreferred": 4378,
      "enty": 4379,
      "Ġstep": 4380,
      "ĠMu": 4381,
      "ried": 4382,
      "Ġver": 4383,
      "ĠBerlin": 4384,
      "class": 4385,
      "Ġincrease": 4386,
      "poration": 4387,
      "Ġearned": 4388,
      "stone": 4389,
      "Ġresponse": 4390,
      "Ġ45": 4391,
      "zech": 4392,
      "Ġquick": 4393,
      "Ġgot": 4394,
      "rance": 4395,
      "Ġrecords": 4396,
      "Ġappearances": 4397,
      "da": 4398,
      "Ġamount": 4399,
      "Ġblock": 4400,
      "2003": 4401,
      "ĠEgypt": 4402,
      "Ġremain": 4403,
      "Ġregional": 4404,
      "Ġlarger": 4405,
      "Ġinsp": 4406,
      "vement": 4407,
      "anguages": 4408,
      "Ġhapp": 4409,
      "ĠStation": 4410,
      "chester": 4411,
      "Ġparents": 4412,
      "ĠWild": 4413,
      "Ġspecific": 4414,
      "Ġinn": 4415,
      "Ġmention": 4416,
      "onto": 4417,
      "ĠSenate": 4418,
      "akers": 4419,
      "ĠCur": 4420,
      "2016": 4421,
      "Ġroom": 4422,
      "gu": 4423,
      "ental": 4424,
      "Ġchart": 4425,
      "rice": 4426,
      "illy": 4427,
      "Ġfailed": 4428,
      "ĠUnivers": 4429,
      "Ġfinancial": 4430,
      "ĠMid": 4431,
      "Ġhelped": 4432,
      "ĠHong": 4433,
      "Ġleaving": 4434,
      "nes": 4435,
      "Ġorganizations": 4436,
      "Ġvon": 4437,
      "ĠIslam": 4438,
      "Ġcomposed": 4439,
      "lav": 4440,
      "Ġbelieved": 4441,
      "Ġawards": 4442,
      "Ġcateg": 4443,
      "ĠBal": 4444,
      "ĠVictoria": 4445,
      "à¤": 4446,
      "Ġforms": 4447,
      "ĠWind": 4448,
      "Ġlog": 4449,
      "ĠDev": 4450,
      "Ġcrew": 4451,
      "Ġacquired": 4452,
      "Ġeastern": 4453,
      "ĠLater": 4454,
      "selves": 4455,
      "thur": 4456,
      "Ġthemselves": 4457,
      "teen": 4458,
      "ouri": 4459,
      "istricts": 4460,
      "Austral": 4461,
      "Ġâ": 4462,
      "Ġtracks": 4463,
      "Ġcitiz": 4464,
      "Ġ65": 4465,
      "Ġeth": 4466,
      "ĠKar": 4467,
      "ĠBroad": 4468,
      "ĠAlexander": 4469,
      "ĠOfficial": 4470,
      "ĠBern": 4471,
      "ova": 4472,
      "Ġlos": 4473,
      "ĠShow": 4474,
      "ĠSa": 4475,
      "Ġcities": 4476,
      "ĠArgent": 4477,
      "Man": 4478,
      "ĠSyd": 4479,
      "Ġtoday": 4480,
      "Ġhouses": 4481,
      "Ġremaining": 4482,
      "Ġtarg": 4483,
      "Ġfaculty": 4484,
      "49": 4485,
      "ĠOlympic": 4486,
      "ĠIf": 4487,
      "vest": 4488,
      "ologist": 4489,
      "ĠNight": 4490,
      "Ġtroops": 4491,
      "ulations": 4492,
      "Ġcarried": 4493,
      "Ġchem": 4494,
      "Don": 4495,
      "ĠEle": 4496,
      "Ġbring": 4497,
      "utt": 4498,
      "bit": 4499,
      "Ġsurface": 4500,
      "ĠCard": 4501,
      "ĠTop": 4502,
      "zy": 4503,
      "Ġvote": 4504,
      "ĠSund": 4505,
      "Ð¸": 4506,
      "Rec": 4507,
      "Ġbrand": 4508,
      "Ġyouth": 4509,
      "2002": 4510,
      "Ġ1963": 4511,
      "ĠMax": 4512,
      "SS": 4513,
      "Ġ1962": 4514,
      "2001": 4515,
      "Ġmovie": 4516,
      "2017": 4517,
      "Ġoffered": 4518,
      "ĠKorea": 4519,
      "46": 4520,
      "Ġhospital": 4521,
      "ĠLittle": 4522,
      "ĠEarth": 4523,
      "ĠHead": 4524,
      "ĠRegiment": 4525,
      "Ġsched": 4526,
      "ntario": 4527,
      "ogue": 4528,
      "Music": 4529,
      "yo": 4530,
      "peror": 4531,
      "Ġepisodes": 4532,
      "Ġmeaning": 4533,
      "een": 4534,
      "ĠEnter": 4535,
      "ĠEp": 4536,
      "Ġsociety": 4537,
      "CC": 4538,
      "ifying": 4539,
      "Ġheavy": 4540,
      "ĠPop": 4541,
      "ĠIslands": 4542,
      "ĠWater": 4543,
      "Ġ1942": 4544,
      "Ġdiss": 4545,
      "ĠHospital": 4546,
      "Ġbaseball": 4547,
      "Ġfort": 4548,
      "ĠDet": 4549,
      "rupt": 4550,
      "uts": 4551,
      "itting": 4552,
      "ennes": 4553,
      "hew": 4554,
      "uries": 4555,
      "ĠFar": 4556,
      "Ġsource": 4557,
      "Ġstarting": 4558,
      "ellig": 4559,
      "Ġalways": 4560,
      "Ġlatter": 4561,
      "ĠChild": 4562,
      "emet": 4563,
      "Ġproposed": 4564,
      "Ġinteg": 4565,
      "more": 4566,
      "Ġpromoted": 4567,
      "Ġrequire": 4568,
      "55": 4569,
      "Ġarchitect": 4570,
      "Ġvariety": 4571,
      "Ġestim": 4572,
      "ĠTheir": 4573,
      "Ġess": 4574,
      "Ġnative": 4575,
      "Ġonline": 4576,
      "Ġseparate": 4577,
      "ĠAk": 4578,
      "From": 4579,
      "ronze": 4580,
      "ĠJackson": 4581,
      "ĠTam": 4582,
      "ously": 4583,
      "Ġven": 4584,
      "ĠDevelopment": 4585,
      "ronic": 4586,
      "ĠFinal": 4587,
      "ĠSpecial": 4588,
      "Association": 4589,
      "ĠJes": 4590,
      "ĠRay": 4591,
      "ĠGirl": 4592,
      "Ġcat": 4593,
      "Ġadj": 4594,
      "ĠKen": 4595,
      "Ġwinner": 4596,
      "According": 4597,
      "Ġprevent": 4598,
      "Ġcultural": 4599,
      "adian": 4600,
      "ione": 4601,
      "ĠLem": 4602,
      "rif": 4603,
      "rin": 4604,
      "Ġdeliver": 4605,
      "Ġprovides": 4606,
      "Ġconsists": 4607,
      "ĠCat": 4608,
      "itude": 4609,
      "Ġpasseng": 4610,
      "Ġunivers": 4611,
      "ĠUl": 4612,
      "Ġspl": 4613,
      "Ġmarriage": 4614,
      "78": 4615,
      "ĠWall": 4616,
      "Ġlabel": 4617,
      "col": 4618,
      "Ġindividuals": 4619,
      "izabeth": 4620,
      "ĠSpe": 4621,
      "Ġcharg": 4622,
      "ĠPolice": 4623,
      "Ġarticle": 4624,
      "ĠSydney": 4625,
      "phia": 4626,
      "Ġtemper": 4627,
      "ĠOf": 4628,
      "Ġmerg": 4629,
      "Ġexperience": 4630,
      "ais": 4631,
      "ĠBBC": 4632,
      "ĠMov": 4633,
      "ocal": 4634,
      "ĠLy": 4635,
      "ĠWay": 4636,
      "innes": 4637,
      "Ġmechan": 4638,
      "Ġconditions": 4639,
      "rovers": 4640,
      "Ġbrief": 4641,
      "With": 4642,
      "icks": 4643,
      "ĠFer": 4644,
      "ker": 4645,
      "Ġmakes": 4646,
      "ĠVill": 4647,
      "Ġcomment": 4648,
      "ĠAndrew": 4649,
      "uated": 4650,
      "Ġprovince": 4651,
      "Ġmainly": 4652,
      "pet": 4653,
      "mas": 4654,
      "Ġpeak": 4655,
      "resp": 4656,
      "Ġnewspaper": 4657,
      "eld": 4658,
      "Ġgraduated": 4659,
      "Ġbridge": 4660,
      "Ġdemon": 4661,
      "Ġfoot": 4662,
      "ĠRel": 4663,
      "Ġdistin": 4664,
      "Polit": 4665,
      "ims": 4666,
      "Ġ1948": 4667,
      "Ġ1943": 4668,
      "rate": 4669,
      "Ġtable": 4670,
      "ounds": 4671,
      "can": 4672,
      "ĠPrize": 4673,
      "edd": 4674,
      "obile": 4675,
      "Ã¸": 4676,
      "Olymp": 4677,
      "ĠFour": 4678,
      "Ġdone": 4679,
      "Ġdeep": 4680,
      "Ġsucceed": 4681,
      "Ġinfluence": 4682,
      "Ġ1961": 4683,
      "Ġoperation": 4684,
      "light": 4685,
      "ĠTri": 4686,
      "onsin": 4687,
      "Ġparties": 4688,
      "icine": 4689,
      "Ġprop": 4690,
      "ĠOntario": 4691,
      "Ġexcept": 4692,
      "innesota": 4693,
      "Ġserve": 4694,
      "adelphia": 4695,
      "ĠCorn": 4696,
      "ji": 4697,
      "West": 4698,
      "Ġborder": 4699,
      "isconsin": 4700,
      "ĠAirport": 4701,
      "Ġspeed": 4702,
      "ĠBoy": 4703,
      "66": 4704,
      "aven": 4705,
      "ĠRaj": 4706,
      "Ġcompl": 4707,
      "Personal": 4708,
      "1990": 4709,
      "ĠKorean": 4710,
      "illed": 4711,
      "icted": 4712,
      "ĠCy": 4713,
      "Ġturned": 4714,
      "etherlands": 4715,
      "Ġpoor": 4716,
      "RA": 4717,
      "Ġpartn": 4718,
      "Ġsn": 4719,
      "Ġdifficult": 4720,
      "Ġdepart": 4721,
      "Ġaffect": 4722,
      "2018": 4723,
      "Ġdouble": 4724,
      "Ġ1956": 4725,
      "ĠPeak": 4726,
      "istance": 4727,
      "atively": 4728,
      "ĠQueens": 4729,
      "Ġproblems": 4730,
      "uilding": 4731,
      "Ġresponsible": 4732,
      "58": 4733,
      "ĠJustice": 4734,
      "Ġmight": 4735,
      "Ġoil": 4736,
      "uing": 4737,
      "Ðµ": 4738,
      "Ġface": 4739,
      "Ġfeaturing": 4740,
      "ĠViet": 4741,
      "ĠBir": 4742,
      "chestra": 4743,
      "ocks": 4744,
      "Ġstories": 4745,
      "Ġfifth": 4746,
      "Ġissued": 4747,
      "omm": 4748,
      "Ġdyn": 4749,
      "Ġextended": 4750,
      "44": 4751,
      "ĠPen": 4752,
      "writer": 4753,
      "verse": 4754,
      "Ġplans": 4755,
      "Ġcapac": 4756,
      "Ġpra": 4757,
      "Ġdespite": 4758,
      "Ġrecent": 4759,
      "ĠAsh": 4760,
      "ession": 4761,
      "ez": 4762,
      "Ġ1941": 4763,
      "ĠMany": 4764,
      "ĠHome": 4765,
      "Ġsculpt": 4766,
      "worth": 4767,
      "Äį": 4768,
      "agon": 4769,
      "Ġproducts": 4770,
      "ĠRod": 4771,
      "ĠKenn": 4772,
      "ortheast": 4773,
      "ĠÂ£": 4774,
      "Ġcandidate": 4775,
      "ĠSerb": 4776,
      "76": 4777,
      "Ġelements": 4778,
      "omot": 4779,
      "Ġassistant": 4780,
      "ĠTy": 4781,
      "ĠGame": 4782,
      "ibliography": 4783,
      "ĠArm": 4784,
      "Ġour": 4785,
      "osa": 4786,
      "ĠSports": 4787,
      "undred": 4788,
      "hy": 4789,
      "Ġfa": 4790,
      "erland": 4791,
      "Ġmusicians": 4792,
      "Ġdiscovered": 4793,
      "Ġexpatriate": 4794,
      "ĠVen": 4795,
      "Ġathlet": 4796,
      "Trans": 4797,
      "Ġtransferred": 4798,
      "2019": 4799,
      "Ġcontra": 4800,
      "Ġbr": 4801,
      "ĠBab": 4802,
      "Ġpage": 4803,
      "Ġfinally": 4804,
      "Ġnature": 4805,
      "Art": 4806,
      "Ġrow": 4807,
      "Ġexecutive": 4808,
      "range": 4809,
      "ĠBand": 4810,
      "Ġelectric": 4811,
      "Ġ1958": 4812,
      "1999": 4813,
      "Ġsail": 4814,
      "Ġarrived": 4815,
      "Ġnearby": 4816,
      "Ġjun": 4817,
      "ĠBell": 4818,
      "Ġsoldiers": 4819,
      "aylor": 4820,
      "Ġstay": 4821,
      "Ġbenef": 4822,
      "anth": 4823,
      "Ġnearly": 4824,
      "hens": 4825,
      "osh": 4826,
      "ĠDaniel": 4827,
      "ighter": 4828,
      "Ġcause": 4829,
      "Ġadministrative": 4830,
      "Ġhonor": 4831,
      "ĠMedal": 4832,
      "arp": 4833,
      "bourne": 4834,
      "Ġ1946": 4835,
      "ba": 4836,
      "Sw": 4837,
      "Ġ1959": 4838,
      "When": 4839,
      "Ġenough": 4840,
      "ropical": 4841,
      "ĠMinistry": 4842,
      "Biography": 4843,
      "Ġsilver": 4844,
      "ĠRome": 4845,
      "Ġmanaged": 4846,
      "Ġhere": 4847,
      "attalion": 4848,
      "Ġnecess": 4849,
      "rics": 4850,
      "Ġcovered": 4851,
      "ĠProfessor": 4852,
      "ully": 4853,
      "ava": 4854,
      "weight": 4855,
      "ĠLim": 4856,
      "ancy": 4857,
      "oto": 4858,
      "ĠPres": 4859,
      "Ġmaster": 4860,
      "Ġsaying": 4861,
      "Ġrugby": 4862,
      "Ġpaper": 4863,
      "ening": 4864,
      "ĠAthlet": 4865,
      "Ġconstructed": 4866,
      "ĠElect": 4867,
      "secut": 4868,
      "Ġresidents": 4869,
      "Ġasked": 4870,
      "French": 4871,
      "ĠPrime": 4872,
      "Ġgun": 4873,
      "Ġnumbers": 4874,
      "get": 4875,
      "umed": 4876,
      "ĠEs": 4877,
      "rict": 4878,
      "Ã£": 4879,
      "Ġprogress": 4880,
      "Ġvan": 4881,
      "Ġtold": 4882,
      "Ġ)": 4883,
      "Ġ1939": 4884,
      "quarters": 4885,
      "ĠCop": 4886,
      "South": 4887,
      "Ġleave": 4888,
      "ging": 4889,
      "dis": 4890,
      "Ġlikely": 4891,
      "lers": 4892,
      "Ġbackground": 4893,
      "ĠAvenue": 4894,
      "ek": 4895,
      "Ġvalue": 4896,
      "95": 4897,
      "ĠColl": 4898,
      "Ġdirectly": 4899,
      "ĠEconom": 4900,
      "EC": 4901,
      "Ġancient": 4902,
      "ĠRevolution": 4903,
      "owa": 4904,
      "Ġincreasing": 4905,
      "ĠJoe": 4906,
      "Ġ80": 4907,
      "ĠSupreme": 4908,
      "Ġwinners": 4909,
      "ĠCharl": 4910,
      "Ġ+": 4911,
      "Olympic": 4912,
      "Ġcorn": 4913,
      "Ġlives": 4914,
      "Ġaddress": 4915,
      "Ġconfl": 4916,
      "Ġvoice": 4917,
      "olitan": 4918,
      "OS": 4919,
      "amber": 4920,
      "Ġrenamed": 4921,
      "Ġpath": 4922,
      "Ġcolor": 4923,
      "88": 4924,
      "ĠCambridge": 4925,
      "perial": 4926,
      "ĠBelg": 4927,
      "Ġorigin": 4928,
      "achel": 4929,
      "vanced": 4930,
      "ydro": 4931,
      "wick": 4932,
      "ĠTownship": 4933,
      "Not": 4934,
      "Ġdead": 4935,
      "ĠFederal": 4936,
      "Ġlevels": 4937,
      "wegian": 4938,
      "book": 4939,
      "ĠGuard": 4940,
      "Ġdrug": 4941,
      "Ġ1957": 4942,
      "Ġsecurity": 4943,
      "ĠNations": 4944,
      "Ġult": 4945,
      "Ġsquare": 4946,
      "ĠToronto": 4947,
      "ĠRog": 4948,
      "Ġprojects": 4949,
      "Ġcomputer": 4950,
      "ĠJeff": 4951,
      "ensity": 4952,
      "Ġpick": 4953,
      "ĠAff": 4954,
      "ĠEnd": 4955,
      "Ġcard": 4956,
      "Ġwords": 4957,
      "Ġthr": 4958,
      "ĠLew": 4959,
      "Ġconstitu": 4960,
      "Ġfriends": 4961,
      "Ġwhole": 4962,
      "ĠMuslim": 4963,
      "ĠLi": 4964,
      "77": 4965,
      "Ġsubs": 4966,
      "ĠSong": 4967,
      "ĠCE": 4968,
      "Ġwanted": 4969,
      "Ġrural": 4970,
      "Ã©e": 4971,
      "Ġconsider": 4972,
      "mod": 4973,
      "nic": 4974,
      "Ġlanguages": 4975,
      "irmed": 4976,
      "Ġ1952": 4977,
      "Ġparticipated": 4978,
      "Ġneighbor": 4979,
      "Ġalongside": 4980,
      "Ġ1947": 4981,
      "ĠCorporation": 4982,
      "rolled": 4983,
      "Ġsolo": 4984,
      "World": 4985,
      "erc": 4986,
      "Ġchannel": 4987,
      "Ġpp": 4988,
      "Ġmunicipal": 4989,
      "ĠPakistan": 4990,
      "ĠElizabeth": 4991,
      "ternet": 4992,
      "IA": 4993,
      "orning": 4994,
      "inson": 4995,
      "Ġleaders": 4996,
      "Ġconcept": 4997,
      "ĠNetherlands": 4998,
      "Ġinh": 4999,
      "Ġacademic": 5000,
      "Ġcycl": 5001,
      "Ġarchitecture": 5002,
      "iginal": 5003,
      "Ġang": 5004,
      "Ġrevealed": 5005,
      "Ġraces": 5006,
      "orship": 5007,
      "vin": 5008,
      "ĠMir": 5009,
      "ois": 5010,
      "ĠAnton": 5011,
      "ĠRegion": 5012,
      "ading": 5013,
      "ĠProgram": 5014,
      "ĠCommon": 5015,
      "Ġprimarily": 5016,
      "igen": 5017,
      "ĠWisconsin": 5018,
      "hemat": 5019,
      "ĠTechnology": 5020,
      "Ġwhether": 5021,
      "ĊĊĠ": 5022,
      "Ġsport": 5023,
      "Ġpan": 5024,
      "aped": 5025,
      "Ġkind": 5026,
      "ĠColor": 5027,
      "ucky": 5028,
      "ĠBrig": 5029,
      "thing": 5030,
      "ĠDuke": 5031,
      "Ġsurn": 5032,
      "Ġpositive": 5033,
      "ĠLight": 5034,
      "emetery": 5035,
      "ĠStadium": 5036,
      "Ġparish": 5037,
      "Ġiniti": 5038,
      "His": 5039,
      "iat": 5040,
      "ĠPremier": 5041,
      "Ġimpact": 5042,
      "Ġlisting": 5043,
      "ĠTok": 5044,
      "ĠSab": 5045,
      "enge": 5046,
      "Ġfirm": 5047,
      "ĠWork": 5048,
      "part": 5049,
      "ĠĊĠĊĠĊĠĊ": 5050,
      "Ġinitial": 5051,
      "Ġdomin": 5052,
      "ĠBa": 5053,
      "By": 5054,
      "Ġmedalists": 5055,
      "Ġeffects": 5056,
      "ilton": 5057,
      "Ġsources": 5058,
      "ĠBon": 5059,
      "Ġofficially": 5060,
      "Ġweap": 5061,
      "establ": 5062,
      "Ġletter": 5063,
      "ĠChap": 5064,
      "urches": 5065,
      "ĠUSA": 5066,
      "ĠSom": 5067,
      "iral": 5068,
      "International": 5069,
      "ĠSwedish": 5070,
      "iest": 5071,
      "ĠJon": 5072,
      "Ġpit": 5073,
      "Ġrule": 5074,
      "living": 5075,
      "Ġsal": 5076,
      "Ġ70": 5077,
      "ĠPubl": 5078,
      "Ġadministration": 5079,
      "Ġ1955": 5080,
      "US": 5081,
      "ĠBol": 5082,
      "Ġsusp": 5083,
      "oud": 5084,
      "Ġconducted": 5085,
      "Ed": 5086,
      "MA": 5087,
      "Ġreplace": 5088,
      "ishes": 5089,
      "ributed": 5090,
      "edom": 5091,
      "portun": 5092,
      "ĠSquad": 5093,
      "Ġdisp": 5094,
      "ĠBishop": 5095,
      "ĠMinnesota": 5096,
      "Ġlaws": 5097,
      "ech": 5098,
      "Ġheart": 5099,
      "1998": 5100,
      "ĠDun": 5101,
      "ĠTurk": 5102,
      "ĠIndepend": 5103,
      "Ġrules": 5104,
      "Ġchampion": 5105,
      "ables": 5106,
      "erto": 5107,
      "Ġfell": 5108,
      "ĠThree": 5109,
      "Cast": 5110,
      "Ġchap": 5111,
      "Ġliterature": 5112,
      "Awards": 5113,
      "ĠAtt": 5114,
      "rical": 5115,
      "oration": 5116,
      "respond": 5117,
      "Ġshare": 5118,
      "Women": 5119,
      "Ġreason": 5120,
      "regon": 5121,
      "Ġdark": 5122,
      "68": 5123,
      "Back": 5124,
      "Ġworkers": 5125,
      "itter": 5126,
      "Will": 5127,
      "Ġstars": 5128,
      "ĠRoute": 5129,
      "eller": 5130,
      "Ġgas": 5131,
      "heim": 5132,
      "ĠHind": 5133,
      "Ġremoved": 5134,
      "98": 5135,
      "ĠSanta": 5136,
      "El": 5137,
      "ĠBoth": 5138,
      "Ġspread": 5139,
      "Ġnotable": 5140,
      "MS": 5141,
      "Ġnation": 5142,
      "2020": 5143,
      "ĠBad": 5144,
      "ctoral": 5145,
      "ĠBrad": 5146,
      "ĠHuman": 5147,
      "ocated": 5148,
      "athan": 5149,
      "ĠPhiladelphia": 5150,
      "ĠLes": 5151,
      "Ġimplement": 5152,
      "ĠBu": 5153,
      "Ġly": 5154,
      "Ġextra": 5155,
      "Track": 5156,
      "Ġidea": 5157,
      "watch": 5158,
      "aging": 5159,
      "Ġcontinue": 5160,
      "iced": 5161,
      "ĠCub": 5162,
      "Ġdedicated": 5163,
      "ĠLt": 5164,
      "ĠProject": 5165,
      "Ġbecomes": 5166,
      "Ġgrew": 5167,
      "inity": 5168,
      "ĠSher": 5169,
      "Ġ32": 5170,
      "Ġprominent": 5171,
      "olis": 5172,
      "Ġdigital": 5173,
      "ounded": 5174,
      "Ġpiano": 5175,
      "Ġ1954": 5176,
      "Ġscene": 5177,
      "ĠMike": 5178,
      "sex": 5179,
      "Ġrecover": 5180,
      "ĠWilson": 5181,
      "ĠSciences": 5182,
      "orter": 5183,
      "je": 5184,
      "ĠTod": 5185,
      "ĠHy": 5186,
      "ĠCa": 5187,
      "Ġdirection": 5188,
      "ĠAut": 5189,
      "1997": 5190,
      "itled": 5191,
      "Ġsyn": 5192,
      "Ne": 5193,
      "ori": 5194,
      "efef": 5195,
      "ĠEst": 5196,
      "ĠAv": 5197,
      "raq": 5198,
      "enna": 5199,
      "Ġsoftware": 5200,
      "Ġmetal": 5201,
      "Ġbasis": 5202,
      "Ġminister": 5203,
      "anga": 5204,
      "force": 5205,
      "ĠWinter": 5206,
      "present": 5207,
      "Ġdisplay": 5208,
      "Ġregist": 5209,
      "Ġplanned": 5210,
      "ĠLady": 5211,
      "ĠOrgan": 5212,
      "Ġproduct": 5213,
      "Ġuns": 5214,
      "Ġ1949": 5215,
      "ga": 5216,
      "Ġordered": 5217,
      "Ġera": 5218,
      "ĠTai": 5219,
      "Ġarticles": 5220,
      "Ġwithd": 5221,
      "Ġfollows": 5222,
      "ĠSweden": 5223,
      "Ġintended": 5224,
      "Ġproduce": 5225,
      "ĠForest": 5226,
      "Ġtowns": 5227,
      "Ġut": 5228,
      "FF": 5229,
      "ĠMic": 5230,
      "ensis": 5231,
      "ographic": 5232,
      "Ä±": 5233,
      "Ġhouseholds": 5234,
      "Ġcapacity": 5235,
      "Ġpotential": 5236,
      "Dem": 5237,
      "Ġ1953": 5238,
      "resh": 5239,
      "Ġdivided": 5240,
      "roup": 5241,
      "onym": 5242,
      "Ġsettlement": 5243,
      "ĠAh": 5244,
      "Ġmountain": 5245,
      "ĠPers": 5246,
      "Ġgrowth": 5247,
      "Ġtypes": 5248,
      "Ġtal": 5249,
      "Ġbranch": 5250,
      "Ġ90": 5251,
      "79": 5252,
      "Ġtreatment": 5253,
      "ivity": 5254,
      "formed": 5255,
      "Ġbehav": 5256,
      "General": 5257,
      "Ġgreen": 5258,
      "ĠCzech": 5259,
      "oral": 5260,
      "ĠCommunity": 5261,
      "Ġnovels": 5262,
      "Col": 5263,
      "Ġpurs": 5264,
      "Ġvac": 5265,
      "Ġrat": 5266,
      "ĠBridge": 5267,
      "ixed": 5268,
      "Ġbelong": 5269,
      "Ġhighly": 5270,
      "ĠBi": 5271,
      "Ġinside": 5272,
      "ĠBaron": 5273,
      "Ġactivity": 5274,
      "ĠĠĠ": 5275,
      "ĠSus": 5276,
      "Ġhistoric": 5277,
      "ĠPu": 5278,
      "ĠFair": 5279,
      "Ġassociation": 5280,
      "ads": 5281,
      "ns": 5282,
      "Ġcomposer": 5283,
      "bro": 5284,
      "aki": 5285,
      "izes": 5286,
      "ĠAnth": 5287,
      "Ġscholars": 5288,
      "Ġtouch": 5289,
      "Ġmixed": 5290,
      "Ġillust": 5291,
      "Ġdestroyed": 5292,
      "ĠHay": 5293,
      "Ġsmaller": 5294,
      "Ġforward": 5295,
      "Ġclear": 5296,
      "yard": 5297,
      "Ġcounter": 5298,
      "Ð½": 5299,
      "hu": 5300,
      "ĠRepresentatives": 5301,
      "yal": 5302,
      "enes": 5303,
      "Ġequipment": 5304,
      "real": 5305,
      "Ġdance": 5306,
      "Ġsites": 5307,
      "ĠIndiana": 5308,
      "rade": 5309,
      "Ãº": 5310,
      "bell": 5311,
      "Ġyet": 5312,
      "nce": 5313,
      "ervative": 5314,
      "1996": 5315,
      "ennessee": 5316,
      "Ġplants": 5317,
      "fefef": 5318,
      "fefefe": 5319,
      "Ġfacilities": 5320,
      "Ġquickly": 5321,
      "%)": 5322,
      "64": 5323,
      "Ġunknown": 5324,
      "asty": 5325,
      "ĠMain": 5326,
      "Ġtitles": 5327,
      "imal": 5328,
      "Ġstreet": 5329,
      "Ġhosted": 5330,
      "ĠPower": 5331,
      "Ġautom": 5332,
      "ĠStudies": 5333,
      "Ġagric": 5334,
      "Ã£o": 5335,
      "lyn": 5336,
      "fort": 5337,
      "ĠIndust": 5338,
      "CO": 5339,
      "Ġphysical": 5340,
      "iant": 5341,
      "ropolitan": 5342,
      "ĠMissouri": 5343,
      "ĠBudd": 5344,
      "Populated": 5345,
      "illery": 5346,
      "ĠKir": 5347,
      "500": 5348,
      "Canadian": 5349,
      "urd": 5350,
      "restling": 5351,
      "Ġcontact": 5352,
      "Ġcontrovers": 5353,
      "ĠLegisl": 5354,
      "greg": 5355,
      "aded": 5356,
      "astic": 5357,
      "Ġvotes": 5358,
      "Ġ1951": 5359,
      "Ġinstitutions": 5360,
      "Ġrespectively": 5361,
      "ĠFire": 5362,
      "bles": 5363,
      "And": 5364,
      "Ġnucle": 5365,
      "ami": 5366,
      "Ġquestion": 5367,
      "ĠMaster": 5368,
      "Ġsymb": 5369,
      "Ġfemales": 5370,
      "One": 5371,
      "kin": 5372,
      "Ġlies": 5373,
      "arry": 5374,
      "Ġcampus": 5375,
      "ĠBusiness": 5376,
      "Ġrepe": 5377,
      "rence": 5378,
      "iform": 5379,
      "cow": 5380,
      "ĠWars": 5381,
      "Ġfeel": 5382,
      "Ġfloor": 5383,
      "ĠFollowing": 5384,
      "ression": 5385,
      "Ġformat": 5386,
      "Bibliography": 5387,
      "Ġamb": 5388,
      "Ġmoving": 5389,
      "Ġassigned": 5390,
      "Ġattend": 5391,
      "ears": 5392,
      "ĠFI": 5393,
      "ĠMun": 5394,
      "Ġupper": 5395,
      "Ġability": 5396,
      "Ġcommonly": 5397,
      "Ġefforts": 5398,
      "eman": 5399,
      "Ġopportun": 5400,
      "1995": 5401,
      "ĠMilitary": 5402,
      "Ġimmediately": 5403,
      "Ġconver": 5404,
      "Ġoperating": 5405,
      "ĠColon": 5406,
      "eather": 5407,
      "Ġpurchased": 5408,
      "bed": 5409,
      "Ġcomes": 5410,
      "Ġcaptured": 5411,
      "andon": 5412,
      "Ġcitizens": 5413,
      "ĠJoh": 5414,
      "gar": 5415,
      "sey": 5416,
      "Ital": 5417,
      "Ġmax": 5418,
      "Ġmodels": 5419,
      "Ġdistricts": 5420,
      "water": 5421,
      "ĠFle": 5422,
      "Ġtrial": 5423,
      "rizona": 5424,
      "ĠIndones": 5425,
      "Ġflight": 5426,
      "estic": 5427,
      "Ġstore": 5428,
      "ĠChris": 5429,
      "ĠCastle": 5430,
      "ĠAdd": 5431,
      "Ġtitled": 5432,
      "ĠMedia": 5433,
      "Ġaccepted": 5434,
      "Ġ36": 5435,
      "Ġfellow": 5436,
      "42": 5437,
      "cul": 5438,
      "ĠWalk": 5439,
      "ĠGolden": 5440,
      "100": 5441,
      "ĠTaylor": 5442,
      "Par": 5443,
      "iang": 5444,
      "ĠSu": 5445,
      "Ġpal": 5446,
      "ĠOregon": 5447,
      "unct": 5448,
      "Ġstreng": 5449,
      "Ġpet": 5450,
      "Ġ1936": 5451,
      "amin": 5452,
      "Pr": 5453,
      "ÑĢ": 5454,
      "ibb": 5455,
      "Ġgiving": 5456,
      "ĠEP": 5457,
      "Ġproblem": 5458,
      "Ġthink": 5459,
      "Ġleaves": 5460,
      "ĠGree": 5461,
      "Ġstra": 5462,
      "Ġmotor": 5463,
      "Ġcerem": 5464,
      "urer": 5465,
      "ĠCaptain": 5466,
      "ĠDiv": 5467,
      "Ġengineer": 5468,
      "Ġlif": 5469,
      "apore": 5470,
      "Ġfavor": 5471,
      "Ġcontest": 5472,
      "elligence": 5473,
      "ĠRom": 5474,
      "sky": 5475,
      "Ġestate": 5476,
      "Ġprogramming": 5477,
      "Ġtarget": 5478,
      "Ã¼r": 5479,
      "41": 5480,
      "ĠCirc": 5481,
      "aug": 5482,
      "ĠMaria": 5483,
      "ĠMunicip": 5484,
      "ĠDam": 5485,
      "opher": 5486,
      "Ġblood": 5487,
      "59": 5488,
      "ĠNaz": 5489,
      "Ġreach": 5490,
      "Ġ1918": 5491,
      "Ġorganized": 5492,
      "Ġreviews": 5493,
      "ĠHu": 5494,
      "spe": 5495,
      "Ġcharge": 5496,
      "Ġroles": 5497,
      "Ġsemi": 5498,
      "ĠBarb": 5499,
      "ĠConne": 5500,
      "ĠArthur": 5501,
      "Ġaffili": 5502,
      "Ġowner": 5503,
      "Ġhop": 5504,
      "iplom": 5505,
      "Ġdeclared": 5506,
      "edia": 5507,
      "ĠMedical": 5508,
      "anna": 5509,
      "Ġcars": 5510,
      "kh": 5511,
      "ĠMexican": 5512,
      "SP": 5513,
      "alo": 5514,
      "Geography": 5515,
      "Ġapproach": 5516,
      "cest": 5517,
      "ĠBeach": 5518,
      "1980": 5519,
      "Ġparliament": 5520,
      "Ġsoc": 5521,
      "Ġattra": 5522,
      "orph": 5523,
      "LA": 5524,
      "Ġteacher": 5525,
      "raine": 5526,
      "duce": 5527,
      "jan": 5528,
      "ader": 5529,
      "oli": 5530,
      "ĠLo": 5531,
      "ĠUt": 5532,
      "grad": 5533,
      "ĠHan": 5534,
      "Ġfounder": 5535,
      "Ġadopted": 5536,
      "Ġterritory": 5537,
      "ĠNetwork": 5538,
      "eder": 5539,
      "08": 5540,
      "olid": 5541,
      "ĠSon": 5542,
      "Ġenem": 5543,
      "li": 5544,
      "aret": 5545,
      "We": 5546,
      "Ġneeded": 5547,
      "osophy": 5548,
      "Ġbad": 5549,
      "Ġhousing": 5550,
      "ĠEarl": 5551,
      "ĠKansas": 5552,
      "ĠMarsh": 5553,
      "ĠÎ": 5554,
      "Ġsumm": 5555,
      "ito": 5556,
      "Ġattention": 5557,
      "1994": 5558,
      "Ġquality": 5559,
      "ĠFrancis": 5560,
      "',": 5561,
      "Ġbeat": 5562,
      "Ġsens": 5563,
      "Ġdisease": 5564,
      "ĠKitt": 5565,
      "Ġpeace": 5566,
      "ika": 5567,
      "ĠOffic": 5568,
      "Ġstone": 5569,
      "Ġconfirmed": 5570,
      "ĠForm": 5571,
      "Gu": 5572,
      "gn": 5573,
      "Ġperman": 5574,
      "ĠKim": 5575,
      "Ġwalk": 5576,
      "Nov": 5577,
      "Ġec": 5578,
      "ĠId": 5579,
      "aga": 5580,
      "Ġfiction": 5581,
      "Ġpositions": 5582,
      "odies": 5583,
      "Ġanalysis": 5584,
      "Ġlay": 5585,
      "uls": 5586,
      "aph": 5587,
      "Ġwa": 5588,
      "oln": 5589,
      "Ġagreed": 5590,
      "ĠHighway": 5591,
      "Ġwing": 5592,
      "Ġprec": 5593,
      "ĠBaseball": 5594,
      "ĠGallery": 5595,
      "56": 5596,
      "Ġ38": 5597,
      "Ġ1938": 5598,
      "ĠAlf": 5599,
      "erick": 5600,
      "Ġdocumentary": 5601,
      "ĠHamp": 5602,
      "Ġagreement": 5603,
      "Ġcompared": 5604,
      "ething": 5605,
      "oven": 5606,
      "Ġestimated": 5607,
      "Ġfigure": 5608,
      "Ġrecon": 5609,
      "Ġrare": 5610,
      "Ġcorrespond": 5611,
      "Ġmedian": 5612,
      "Ġenter": 5613,
      "Japan": 5614,
      "Ġcontent": 5615,
      "ĠMarc": 5616,
      "Ã¢": 5617,
      "ibly": 5618,
      "uled": 5619,
      "Ġcombined": 5620,
      "ĠDavis": 5621,
      "Ġgained": 5622,
      "Ġconference": 5623,
      "Ġbig": 5624,
      "Ġserves": 5625,
      "Ġmiles": 5626,
      "Ġswim": 5627,
      "ĠAtlantic": 5628,
      "Ġcoin": 5629,
      "unte": 5630,
      "ighth": 5631,
      "ĠKel": 5632,
      "Ġelim": 5633,
      "Ġsuffered": 5634,
      "Ġvs": 5635,
      "Ġdistribution": 5636,
      "Ġtypically": 5637,
      "yes": 5638,
      "ĠStephen": 5639,
      "ĠDespite": 5640,
      "Ġfr": 5641,
      "Ġindustrial": 5642,
      "arc": 5643,
      "western": 5644,
      "Ġ500": 5645,
      "Ġoccurred": 5646,
      "osen": 5647,
      "Ġelev": 5648,
      "ansion": 5649,
      "ĠBrook": 5650,
      "Ġwidely": 5651,
      "ĠPhilippines": 5652,
      "ĠNorway": 5653,
      "itness": 5654,
      "Ġengineering": 5655,
      "ĠTal": 5656,
      "gers": 5657,
      "HL": 5658,
      "ĠMoh": 5659,
      "Ġhundred": 5660,
      "ĠTennessee": 5661,
      "43": 5662,
      "ÃŃa": 5663,
      "Ġvess": 5664,
      "Ġleadership": 5665,
      "ĠMember": 5666,
      "works": 5667,
      "ĠLI": 5668,
      "mad": 5669,
      "venth": 5670,
      "ĠConf": 5671,
      "lah": 5672,
      "ĠColorado": 5673,
      "Ġconcent": 5674,
      "Ġprobably": 5675,
      "ĠMountain": 5676,
      "ancing": 5677,
      "oster": 5678,
      "ĠLind": 5679,
      "Ġbronze": 5680,
      "ĠRem": 5681,
      "Fran": 5682,
      "ĠFederation": 5683,
      "TA": 5684,
      "kes": 5685,
      "Ġlargely": 5686,
      "ĠRad": 5687,
      "ĠFe": 5688,
      "tle": 5689,
      "Ġseats": 5690,
      "elle": 5691,
      "orge": 5692,
      "oti": 5693,
      "olved": 5694,
      "ĠDar": 5695,
      "acter": 5696,
      "ĠHo": 5697,
      "ĠTurkey": 5698,
      "Ġjoint": 5699,
      "Ġflag": 5700,
      "Ġlabor": 5701,
      "ashion": 5702,
      "Ġpolitics": 5703,
      "ĠTest": 5704,
      "ĠFox": 5705,
      "oles": 5706,
      "ĠAlso": 5707,
      "67": 5708,
      "ĠSpacewatch": 5709,
      "ĠBec": 5710,
      "May": 5711,
      "Ġacting": 5712,
      "09": 5713,
      "ĠAdminist": 5714,
      "itional": 5715,
      "ĠJunior": 5716,
      "CAA": 5717,
      "1993": 5718,
      "ĠRet": 5719,
      "Ġcontemporary": 5720,
      "uese": 5721,
      "ĠBall": 5722,
      "Ġclassical": 5723,
      "ambig": 5724,
      "ĠMemorial": 5725,
      "1992": 5726,
      "ĠMarg": 5727,
      "VD": 5728,
      "ĠIraq": 5729,
      "ĠKal": 5730,
      "05": 5731,
      "iques": 5732,
      "Ġresident": 5733,
      "Ġfast": 5734,
      "hedral": 5735,
      "ĠPit": 5736,
      "ĠSteve": 5737,
      "pass": 5738,
      "Ġpressure": 5739,
      "Ġarts": 5740,
      "Ġconclud": 5741,
      "Ġdistance": 5742,
      "Co": 5743,
      "Ġcancer": 5744,
      "vard": 5745,
      "Ġvot": 5746,
      "ĠCountry": 5747,
      "zo": 5748,
      "ĠTa": 5749,
      "Ġunc": 5750,
      "Ġcoming": 5751,
      "former": 5752,
      "Ġmentioned": 5753,
      "Ġoffers": 5754,
      "Sportspeople": 5755,
      "ĠReview": 5756,
      "ĠWeek": 5757,
      "Ġvillages": 5758,
      "cles": 5759,
      "Ġprin": 5760,
      "ician": 5761,
      "iti": 5762,
      "aro": 5763,
      "Ġcode": 5764,
      "Ġpoll": 5765,
      "Ġsearch": 5766,
      "idi": 5767,
      "Ġrecently": 5768,
      "met": 5769,
      "ĠRon": 5770,
      "Ġcrime": 5771,
      "pson": 5772,
      "mouth": 5773,
      "Ġrecognized": 5774,
      "Australian": 5775,
      "69": 5776,
      "law": 5777,
      "Ġ1937": 5778,
      "usion": 5779,
      "Ġtherefore": 5780,
      "iling": 5781,
      "Ġpresence": 5782,
      "Ġx": 5783,
      "Ġjournalist": 5784,
      "Ġhor": 5785,
      "Ġurban": 5786,
      "Ġstream": 5787,
      "ĠPrim": 5788,
      "bot": 5789,
      "Ġresulted": 5790,
      "Ġcolumn": 5791,
      "uate": 5792,
      "Ġmess": 5793,
      "Ġboy": 5794,
      "incial": 5795,
      "Ġir": 5796,
      "ĠGreg": 5797,
      "Ġeducated": 5798,
      "ingham": 5799,
      "ĠPier": 5800,
      "agh": 5801,
      "Ġweight": 5802,
      "iders": 5803,
      "ĠLemmon": 5804,
      "Ġperformances": 5805,
      "bra": 5806,
      "ĠEngineering": 5807,
      "Ġ(,": 5808,
      "Ġnominated": 5809,
      "ĠRoss": 5810,
      "ĠSav": 5811,
      "Ġdamage": 5812,
      "Ġcam": 5813,
      "aks": 5814,
      "ĠMaryland": 5815,
      "mitted": 5816,
      "Ġabandon": 5817,
      "Ġbegins": 5818,
      "Ġcoal": 5819,
      "bi": 5820,
      "ussian": 5821,
      "Ġsecondary": 5822,
      "uildings": 5823,
      "inner": 5824,
      "iller": 5825,
      "Ġstarring": 5826,
      "ilation": 5827,
      "Ġretire": 5828,
      "Ġsales": 5829,
      "Ġcritical": 5830,
      "07": 5831,
      "Ġversions": 5832,
      "Ġsexual": 5833,
      "ĠMoscow": 5834,
      "Ġexpanded": 5835,
      "mes": 5836,
      "La": 5837,
      "rage": 5838,
      "Ġofficials": 5839,
      "ĠNic": 5840,
      "ĠBrother": 5841,
      "andy": 5842,
      "ĠâĢł": 5843,
      "ĠOcean": 5844,
      "Ġinstrument": 5845,
      "ĠCommand": 5846,
      "57": 5847,
      "rÃ©": 5848,
      "ĠArea": 5849,
      "ĠSem": 5850,
      "Ġyards": 5851,
      "Ġgraph": 5852,
      "Ġhar": 5853,
      "Ġreduced": 5854,
      "Ġbal": 5855,
      "etting": 5856,
      "ĠDisc": 5857,
      "Ġblue": 5858,
      "Ġidentified": 5859,
      "ĠLive": 5860,
      "isa": 5861,
      "ĠHal": 5862,
      "Ġencou": 5863,
      "asters": 5864,
      "igrants": 5865,
      "ĠâĢĺ": 5866,
      "ogs": 5867,
      "Ġresulting": 5868,
      "ambiguation": 5869,
      "Ġburied": 5870,
      "Ġpainting": 5871,
      "Ġranked": 5872,
      "ĠJews": 5873,
      "Indian": 5874,
      "Ġtim": 5875,
      "style": 5876,
      "ĠBat": 5877,
      "Ġconcert": 5878,
      "Ġreform": 5879,
      "Ġsecret": 5880,
      "ST": 5881,
      "Ġcreation": 5882,
      "claim": 5883,
      "Ġmicro": 5884,
      "which": 5885,
      "Ġhabit": 5886,
      "ĠRen": 5887,
      "ni": 5888,
      "Ġcab": 5889,
      "ĠSquadron": 5890,
      "Sources": 5891,
      "ictional": 5892,
      "wealth": 5893,
      "inus": 5894,
      "Death": 5895,
      "tainment": 5896,
      "viation": 5897,
      "ĠLeon": 5898,
      "atus": 5899,
      "Ġexpected": 5900,
      "rog": 5901,
      "ĠQueensland": 5902,
      "ĠLewis": 5903,
      "Ġdefend": 5904,
      "ĠHor": 5905,
      "ttp": 5906,
      "Ġknowledge": 5907,
      "Ġ33": 5908,
      "ante": 5909,
      "Ġpict": 5910,
      "Ġnewly": 5911,
      "ĠMalays": 5912,
      "Ġgranted": 5913,
      "Ġ1919": 5914,
      "ymn": 5915,
      "Ġcommittee": 5916,
      "ĠCas": 5917,
      "ĠStr": 5918,
      "Ġfish": 5919,
      "Ġchairman": 5920,
      "Ġtaught": 5921,
      "ĠBooks": 5922,
      "Ġtheatre": 5923,
      "ĠWat": 5924,
      "oly": 5925,
      "Ġspons": 5926,
      "ĠAlb": 5927,
      "ĠPolit": 5928,
      "Ġ1914": 5929,
      "Ġadapt": 5930,
      "1991": 5931,
      "Ġprep": 5932,
      "Ġmill": 5933,
      "Ġwild": 5934,
      "Ġ...": 5935,
      "Ġcouple": 5936,
      "ĠBru": 5937,
      "ĠSpring": 5938,
      "Ġscoring": 5939,
      "Ġdrums": 5940,
      "ĠMas": 5941,
      "aling": 5942,
      "Char": 5943,
      "Ġcarri": 5944,
      "ĠPass": 5945,
      "ĠMelbourne": 5946,
      "place": 5947,
      "ĠArizona": 5948,
      "ordin": 5949,
      "Ġimage": 5950,
      "ĠFamily": 5951,
      "Ġpattern": 5952,
      "miss": 5953,
      "ER": 5954,
      "ĠVo": 5955,
      "Ġactually": 5956,
      "Ġtwice": 5957,
      "Ġfelt": 5958,
      "ĠNiger": 5959,
      "Ġpack": 5960,
      "Ġserious": 5961,
      "GB": 5962,
      "ĠDer": 5963,
      "umes": 5964,
      "itzerland": 5965,
      "Ġgovernor": 5966,
      "Ġthous": 5967,
      "Ġtrue": 5968,
      "Background": 5969,
      "Ġattacks": 5970,
      "ĠKhan": 5971,
      "ĠAnother": 5972,
      "ĠSri": 5973,
      "Å«": 5974,
      "ĠStock": 5975,
      "No": 5976,
      "Ġrecomm": 5977,
      "Disc": 5978,
      "Ġproviding": 5979,
      "Ġlosing": 5980,
      "TC": 5981,
      "ager": 5982,
      "Ġ1935": 5983,
      "ournament": 5984,
      "Ġformation": 5985,
      "osis": 5986,
      "72": 5987,
      "Ġ1917": 5988,
      "Ġstrugg": 5989,
      "IC": 5990,
      "ello": 5991,
      "Ġetc": 5992,
      "Ġreceive": 5993,
      "rell": 5994,
      "Â°": 5995,
      "Rail": 5996,
      "Ġyounger": 5997,
      "Ġliber": 5998,
      "Ñģ": 5999,
      "ĠArk": 6000,
      "Ġsurrounding": 6001,
      "Ġrom": 6002,
      "incoln": 6003,
      "wing": 6004,
      "Ġalle": 6005,
      "ĠJer": 6006,
      "Ġdial": 6007,
      "gg": 6008,
      "Ġwall": 6009,
      "Ġbow": 6010,
      "ocese": 6011,
      "ivals": 6012,
      "oths": 6013,
      "Ġexperiment": 6014,
      "lahoma": 6015,
      "Des": 6016,
      "hips": 6017,
      "ipe": 6018,
      "Ġgives": 6019,
      "urrent": 6020,
      "net": 6021,
      "room": 6022,
      "ĠTrust": 6023,
      "ordon": 6024,
      "Ġpaid": 6025,
      "ting": 6026,
      "Ġnet": 6027,
      "ĠDor": 6028,
      "William": 6029,
      "ĠManagement": 6030,
      "Ġsuppl": 6031,
      "pur": 6032,
      "Ġcaptain": 6033,
      "ĠAustria": 6034,
      "ĠHart": 6035,
      "ouses": 6036,
      "Ġcontinues": 6037,
      "''": 6038,
      "Ġlibrary": 6039,
      "pri": 6040,
      "Ġspirit": 6041,
      "ĠInfantry": 6042,
      "Ġtree": 6043,
      "disambiguation": 6044,
      "Ġregions": 6045,
      "aints": 6046,
      "ĠDec": 6047,
      "Ġcommander": 6048,
      "ĠPhilip": 6049,
      "anning": 6050,
      "ĠConc": 6051,
      "Ġsays": 6052,
      "Ġclaims": 6053,
      "Ġauthorities": 6054,
      "ĠAffairs": 6055,
      "ĠForeign": 6056,
      "Ġcompon": 6057,
      "lywood": 6058,
      "Television": 6059,
      "iny": 6060,
      "ĠUs": 6061,
      "Ġobtained": 6062,
      "Ġcells": 6063,
      "Ġgreater": 6064,
      "also": 6065,
      "ĠRang": 6066,
      "Ġracing": 6067,
      "Ġkept": 6068,
      "ographer": 6069,
      "elected": 6070,
      "keep": 6071,
      "Ac": 6072,
      "Ġformerly": 6073,
      "Ġcrim": 6074,
      "Ġlaunch": 6075,
      "Ġfestival": 6076,
      "Ġsplit": 6077,
      "06": 6078,
      "ruit": 6079,
      "ĠTs": 6080,
      "eline": 6081,
      "ĠEmperor": 6082,
      "Ġcoaches": 6083,
      "Ġ44": 6084,
      "Ġpremier": 6085,
      "Ġtrains": 6086,
      "ĠKentucky": 6087,
      "Ġspring": 6088,
      "51": 6089,
      "Ġpainter": 6090,
      "Ġinjury": 6091,
      "ecutive": 6092,
      "Ġbott": 6093,
      "01": 6094,
      "www": 6095,
      "Ġpurpose": 6096,
      "89": 6097,
      "season": 6098,
      "ĠSingapore": 6099,
      "abama": 6100,
      "Ġsuggested": 6101,
      "54": 6102,
      "Tax": 6103,
      "Ġnotes": 6104,
      "Ġvehicles": 6105,
      "vo": 6106,
      "Ġfinish": 6107,
      "uous": 6108,
      "Ġpropos": 6109,
      "iot": 6110,
      "Ġtwenty": 6111,
      "Ġcannot": 6112,
      "ĠNorwegian": 6113,
      "Ġtraffic": 6114,
      "mph": 6115,
      "Ġcritics": 6116,
      "Ġtells": 6117,
      "life": 6118,
      "ĠSurvey": 6119,
      "Ġ1928": 6120,
      "ĠVietnam": 6121,
      "Ġloan": 6122,
      "Ġfigures": 6123,
      "ĠIowa": 6124,
      "ĠHard": 6125,
      "pool": 6126,
      "Ġvocal": 6127,
      "Ġallows": 6128,
      "Ġdesignated": 6129,
      "Ġarrested": 6130,
      "Ġsupply": 6131,
      "ĠTen": 6132,
      "Ġslight": 6133,
      "ĠBalt": 6134,
      "orney": 6135,
      "ĠBah": 6136,
      "Ġmarked": 6137,
      "ifications": 6138,
      "ĠBos": 6139,
      "Ġ1933": 6140,
      "lan": 6141,
      "ĠFree": 6142,
      "Ġhy": 6143,
      "ionally": 6144,
      "Ġshowed": 6145,
      "ĠOd": 6146,
      "ĠGil": 6147,
      "orro": 6148,
      "ovak": 6149,
      "AA": 6150,
      "52": 6151,
      "Ġmaterials": 6152,
      "Ġconflict": 6153,
      "Ġshop": 6154,
      "Ġreports": 6155,
      "Ġconnected": 6156,
      "Ġscientific": 6157,
      "1989": 6158,
      "Ġ1929": 6159,
      "bs": 6160,
      "organ": 6161,
      "ĠDesign": 6162,
      "Ġmeasure": 6163,
      "ĠHou": 6164,
      "ooth": 6165,
      "ĠLabor": 6166,
      "Ġrestaur": 6167,
      "ĠAnderson": 6168,
      "Qu": 6169,
      "Ġtheme": 6170,
      "stan": 6171,
      "ĠPlan": 6172,
      "Ġtalk": 6173,
      "Ġcondition": 6174,
      "Ġsurname": 6175,
      "ĠIV": 6176,
      "2021": 6177,
      "74": 6178,
      "Ġapplied": 6179,
      "last": 6180,
      "Ġdensity": 6181,
      "pa": 6182,
      "Ġteaching": 6183,
      "Ġstatistics": 6184,
      "ĠCape": 6185,
      "IT": 6186,
      "Life": 6187,
      "ques": 6188,
      "Ġmales": 6189,
      "Ġlett": 6190,
      "uties": 6191,
      "53": 6192,
      "ĠEntertainment": 6193,
      "PS": 6194,
      "Ġreserv": 6195,
      "Ġhall": 6196,
      "Ġheadquarters": 6197,
      "po": 6198,
      "ĠShort": 6199,
      "1970": 6200,
      "Ġbatt": 6201,
      "Ġtried": 6202,
      "Ġslow": 6203,
      "urance": 6204,
      "Sing": 6205,
      "Ġfacility": 6206,
      "ĠCra": 6207,
      "Ġinspired": 6208,
      "rum": 6209,
      "Ġ34": 6210,
      "96": 6211,
      "Vill": 6212,
      "Ġ1900": 6213,
      "istry": 6214,
      "cha": 6215,
      "ĠNap": 6216,
      "roit": 6217,
      "ĠDown": 6218,
      "Ġentry": 6219,
      "ĠWrit": 6220,
      "ateur": 6221,
      "Ġaccident": 6222,
      "Ġpartner": 6223,
      "Ġmap": 6224,
      "ĠCab": 6225,
      "ublin": 6226,
      "ĠGreece": 6227,
      "Ġnortheast": 6228,
      "Ġunique": 6229,
      "Public": 6230,
      "ĠChristmas": 6231,
      "Ġfully": 6232,
      "Ġportray": 6233,
      "Ġwins": 6234,
      "rator": 6235,
      "Ġcert": 6236,
      "Ġ1934": 6237,
      "Ġgrowing": 6238,
      "First": 6239,
      "Ġalone": 6240,
      "Ġsucceeded": 6241,
      "Ġmut": 6242,
      "Ġallowing": 6243,
      "ĠFame": 6244,
      "ĠRoy": 6245,
      "Ġ64": 6246,
      "Ġdisestabl": 6247,
      "Ġchalleng": 6248,
      "agu": 6249,
      "Ġclasses": 6250,
      "bums": 6251,
      "Ġopposition": 6252,
      "Ġexisting": 6253,
      "Ġ(),": 6254,
      "Ġsuit": 6255,
      "cticut": 6256,
      "ĠMiller": 6257,
      "uther": 6258,
      "Ġaim": 6259,
      "cluding": 6260,
      "Ġeas": 6261,
      "Ġoppos": 6262,
      "ĠFa": 6263,
      "Ġfeet": 6264,
      "sort": 6265,
      "ĠHoly": 6266,
      "71": 6267,
      "Ġmom": 6268,
      "Ġthings": 6269,
      "cont": 6270,
      "Ġvisit": 6271,
      "enez": 6272,
      "east": 6273,
      "Ġ1932": 6274,
      "stic": 6275,
      "ordan": 6276,
      "Ġearth": 6277,
      "Ġprint": 6278,
      "Ġaired": 6279,
      "idge": 6280,
      "Ġsituation": 6281,
      "Ġheav": 6282,
      "ĠAbb": 6283,
      "Hon": 6284,
      "Ġ1910": 6285,
      "Ġpublication": 6286,
      "related": 6287,
      "Ġ1924": 6288,
      "ĠSwitzerland": 6289,
      "value": 6290,
      "Ġadvanced": 6291,
      "Ġce": 6292,
      "Ġhands": 6293,
      "ippi": 6294,
      "ikh": 6295,
      "Ġfighting": 6296,
      "Äĥ": 6297,
      "Ġ(;": 6298,
      "Sec": 6299,
      "ĠGi": 6300,
      "ugu": 6301,
      "Ġsituated": 6302,
      "ĠHarry": 6303,
      "ĠRa": 6304,
      "ĠStand": 6305,
      "ĠTokyo": 6306,
      "ureau": 6307,
      "ĠFord": 6308,
      "iser": 6309,
      "ĠDrag": 6310,
      "Ġsixth": 6311,
      "glas": 6312,
      "Ġmaintain": 6313,
      "Ġsingers": 6314,
      "ti": 6315,
      "ĠBillboard": 6316,
      "Ġoldest": 6317,
      "Ġgoes": 6318,
      "eding": 6319,
      "Notable": 6320,
      "Ġspot": 6321,
      "Ġwant": 6322,
      "CD": 6323,
      "ologists": 6324,
      "ĠEth": 6325,
      "onom": 6326,
      "Spec": 6327,
      "Ġdefined": 6328,
      "ĠMagazine": 6329,
      "unch": 6330,
      "Ġelement": 6331,
      "Ġroyal": 6332,
      "ĠNY": 6333,
      "ĠSimon": 6334,
      "antic": 6335,
      "Ġtower": 6336,
      "Ġcart": 6337,
      "61": 6338,
      "ski": 6339,
      "ĠStaff": 6340,
      "1988": 6341,
      "achelor": 6342,
      "73": 6343,
      "Results": 6344,
      "wich": 6345,
      "Euro": 6346,
      "Ġpair": 6347,
      "olas": 6348,
      "ĠPict": 6349,
      "Ġple": 6350,
      "ĠLtd": 6351,
      "erald": 6352,
      "ĠManchester": 6353,
      "ĠTony": 6354,
      "ĠWalter": 6355,
      "Ġreference": 6356,
      "inguished": 6357,
      "outs": 6358,
      "Ġcustom": 6359,
      "Ġsafety": 6360,
      "62": 6361,
      "Ġhistorian": 6362,
      "stron": 6363,
      "ĠBeng": 6364,
      "ĠLank": 6365,
      "ĊĠĊĠĊ": 6366,
      "inth": 6367,
      "ĠBattalion": 6368,
      "Ġsimply": 6369,
      "iÃ³n": 6370,
      "ĠForces": 6371,
      "ĠJane": 6372,
      "ĠChannel": 6373,
      "Ġguest": 6374,
      "ĠIr": 6375,
      "ĠHur": 6376,
      "Ġreturning": 6377,
      "Dav": 6378,
      "joy": 6379,
      "lines": 6380,
      "imens": 6381,
      "allery": 6382,
      "olished": 6383,
      "ester": 6384,
      "Ġcompletely": 6385,
      "Ġsons": 6386,
      "Ġmusician": 6387,
      "ĠTelevision": 6388,
      "ĠStat": 6389,
      "asion": 6390,
      "Ġ1912": 6391,
      "Ġcontain": 6392,
      "Ġpromotion": 6393,
      "rainian": 6394,
      "North": 6395,
      "63": 6396,
      "Ġanimals": 6397,
      "Ġrapid": 6398,
      "Ġ48": 6399,
      "Ġsides": 6400,
      "Ġcompetitions": 6401,
      "Ġsets": 6402,
      "Def": 6403,
      "ĠFront": 6404,
      "gal": 6405,
      "Ġdiplom": 6406,
      "ardo": 6407,
      "Ġchosen": 6408,
      "Club": 6409,
      "ĠÄ": 6410,
      "Ġrisk": 6411,
      "Ġtele": 6412,
      "Education": 6413,
      "ials": 6414,
      "ÑĤ": 6415,
      "03": 6416,
      "Ġmetres": 6417,
      "pects": 6418,
      "ĠAnne": 6419,
      "Exp": 6420,
      "ĠPoint": 6421,
      "Ġmeant": 6422,
      "VID": 6423,
      "Ġbrothers": 6424,
      "ĠChile": 6425,
      "Ġagent": 6426,
      "ĠAlabama": 6427,
      "uv": 6428,
      "Ð¾Ð": 6429,
      "Ġbillion": 6430,
      "Ġroll": 6431,
      "Ġlot": 6432,
      "Ġhorse": 6433,
      "Ġachieved": 6434,
      "ĠTransport": 6435,
      "Ġportion": 6436,
      "ĠSound": 6437,
      "ĠTurn": 6438,
      "zh": 6439,
      "Ġdefin": 6440,
      "Bo": 6441,
      "Ġalt": 6442,
      "ĠLincoln": 6443,
      "Ġtemple": 6444,
      "Ġholds": 6445,
      "Since": 6446,
      "Ġclimate": 6447,
      "everal": 6448,
      "Ġarms": 6449,
      "Ġexchange": 6450,
      "Ġ1927": 6451,
      "Ġsuggest": 6452,
      "Ġauthority": 6453,
      "ĠAbd": 6454,
      "Ġ1931": 6455,
      "Ġlocomot": 6456,
      "ĠTan": 6457,
      "cell": 6458,
      "Ġmayor": 6459,
      "irus": 6460,
      "anton": 6461,
      "Best": 6462,
      "elsh": 6463,
      "Ġmethods": 6464,
      "Ġ1922": 6465,
      "adi": 6466,
      "Ġsimple": 6467,
      "enny": 6468,
      "Ġyellow": 6469,
      "igration": 6470,
      "ĠLINE": 6471,
      "ĠSecurity": 6472,
      "Ġmachine": 6473,
      "Ġglobal": 6474,
      "aste": 6475,
      "Ġnob": 6476,
      "ĠHans": 6477,
      "ĠJacob": 6478,
      "ãĥ": 6479,
      "agan": 6480,
      "Ġmanagers": 6481,
      "Ġcharts": 6482,
      "PA": 6483,
      "ĠEach": 6484,
      "achers": 6485,
      "Ġprincipal": 6486,
      "ĠOklahoma": 6487,
      "Ġnarrow": 6488,
      "aming": 6489,
      "Ap": 6490,
      "1987": 6491,
      "zen": 6492,
      "inder": 6493,
      "rait": 6494,
      "ĠServices": 6495,
      "Ġnecessary": 6496,
      "Ġprotection": 6497,
      "Comp": 6498,
      "Ġadvert": 6499,
      "Ġproceed": 6500,
      "oes": 6501,
      "Ġ49": 6502,
      "issippi": 6503,
      "Ġfans": 6504,
      "Ġbought": 6505,
      "Christ": 6506,
      "inema": 6507,
      "Ġconsum": 6508,
      "Ġflood": 6509,
      "Born": 6510,
      "under": 6511,
      "Ġvehicle": 6512,
      "ressed": 6513,
      "Ġflow": 6514,
      ";\"|": 6515,
      "offs": 6516,
      "04": 6517,
      "SR": 6518,
      "Ġlyrics": 6519,
      "ĠLINEAR": 6520,
      "hol": 6521,
      "oslav": 6522,
      "Ġbill": 6523,
      "ridges": 6524,
      "elve": 6525,
      "ĠQuebec": 6526,
      "Ġcontaining": 6527,
      "ĠSocorro": 6528,
      "Ġrefused": 6529,
      "Af": 6530,
      "Ġmemory": 6531,
      "Ġresources": 6532,
      "ĠAmericans": 6533,
      "ĠModern": 6534,
      "box": 6535,
      "ĠTemple": 6536,
      "Ġfolk": 6537,
      "olo": 6538,
      "ĠMarine": 6539,
      "ĠHamilton": 6540,
      "ĠConnecticut": 6541,
      "ĠPrix": 6542,
      "leep": 6543,
      "Ġcreating": 6544,
      "Ġcommissioned": 6545,
      "Ġ1921": 6546,
      "ĠNev": 6547,
      "gor": 6548,
      "Ġopera": 6549,
      "ĠSenior": 6550,
      "ĠArmen": 6551,
      "Ġinters": 6552,
      "uccess": 6553,
      "Ġbasic": 6554,
      "agen": 6555,
      "ifically": 6556,
      "Ġfair": 6557,
      "ĠNick": 6558,
      "Ġactions": 6559,
      "ĠTurkish": 6560,
      "ĠSix": 6561,
      "Ġproperties": 6562,
      "Cont": 6563,
      "ĠTournament": 6564,
      "ĠBrigade": 6565,
      "Ġpilot": 6566,
      "ĠBulg": 6567,
      "Ġsoutheast": 6568,
      "ĠHand": 6569,
      "ogy": 6570,
      "ĠOfficer": 6571,
      "Ġjudge": 6572,
      "ĠAcc": 6573,
      "Ġfrequently": 6574,
      "iva": 6575,
      "ĠGab": 6576,
      "rees": 6577,
      "aux": 6578,
      "ĠHoward": 6579,
      "ĠCroat": 6580,
      "'.": 6581,
      "gi": 6582,
      "ania": 6583,
      "oured": 6584,
      "1986": 6585,
      "Ġrelatively": 6586,
      "Ġdaily": 6587,
      "Ġvolume": 6588,
      "Ġlake": 6589,
      "Men": 6590,
      "ĠRegional": 6591,
      "Ġaudience": 6592,
      "Ġattempts": 6593,
      "Ġneighborhood": 6594,
      "Ġcombat": 6595,
      "ĠWolf": 6596,
      "Ġsettled": 6597,
      "Ġspect": 6598,
      "Jan": 6599,
      "Ġ1925": 6600,
      "ieval": 6601,
      "Ġapproved": 6602,
      "Following": 6603,
      "Ġ39": 6604,
      "Ġattempted": 6605,
      "Ġstorm": 6606,
      "ĠSunday": 6607,
      "En": 6608,
      "ĠNik": 6609,
      "aver": 6610,
      "Ã©t": 6611,
      "Ġsomething": 6612,
      "ĠStone": 6613,
      "ĠBurn": 6614,
      "bar": 6615,
      "ented": 6616,
      "Plot": 6617,
      "Ġthir": 6618,
      "ui": 6619,
      "Phil": 6620,
      "ĠNaval": 6621,
      "Ġreject": 6622,
      "ĠNCAA": 6623,
      "lad": 6624,
      "Ġexpansion": 6625,
      "igenous": 6626,
      "icians": 6627,
      "Desc": 6628,
      "died": 6629,
      "ĠDomin": 6630,
      "ĠAli": 6631,
      "Ġbor": 6632,
      "Ġwear": 6633,
      "Ġbeaut": 6634,
      "ĠAud": 6635,
      "Ġdraft": 6636,
      "Ġending": 6637,
      "aron": 6638,
      "Ġsubsequent": 6639,
      "ĠEric": 6640,
      "Ġ1926": 6641,
      "odox": 6642,
      "weet": 6643,
      "abad": 6644,
      "ĠKat": 6645,
      "Ġstock": 6646,
      "Ġvisited": 6647,
      "ĠBuilding": 6648,
      "Ġlit": 6649,
      "Military": 6650,
      "Ġexclus": 6651,
      "Ġunderst": 6652,
      "ulate": 6653,
      "ĠLabour": 6654,
      "iversary": 6655,
      "Ġdrive": 6656,
      "1985": 6657,
      "Ġunable": 6658,
      "oen": 6659,
      "Commun": 6660,
      "Songs": 6661,
      "ĠDiego": 6662,
      "ĠPortuguese": 6663,
      "Ġprofile": 6664,
      "Ġpiece": 6665,
      "ĠBarn": 6666,
      "ĠLiter": 6667,
      "Ġfought": 6668,
      "Ġroof": 6669,
      "iments": 6670,
      "risis": 6671,
      "Ġattacked": 6672,
      "ĠPrin": 6673,
      "ghan": 6674,
      "02": 6675,
      "ĠHockey": 6676,
      "Ġeffective": 6677,
      "chi": 6678,
      "ĠTit": 6679,
      "Ġ1916": 6680,
      "opter": 6681,
      "Ġentitled": 6682,
      "ĠIl": 6683,
      "prise": 6684,
      "Ġmile": 6685,
      "Ġjazz": 6686,
      "ĠNFL": 6687,
      "Ġ1923": 6688,
      "aren": 6689,
      "Ġadvance": 6690,
      "ĠNich": 6691,
      "enh": 6692,
      "Ġlocations": 6693,
      "Ġrespond": 6694,
      "Ġoppon": 6695,
      "ĠHonor": 6696,
      "Ġcopies": 6697,
      "Ġ37": 6698,
      "You": 6699,
      "uri": 6700,
      "Ġbroke": 6701,
      "Ġfounding": 6702,
      "iner": 6703,
      "rete": 6704,
      "Ġgod": 6705,
      "Ġwinter": 6706,
      "Ġ1915": 6707,
      "Ġends": 6708,
      "Ġnormal": 6709,
      "istant": 6710,
      "actions": 6711,
      "ĠLow": 6712,
      "iami": 6713,
      "Ġstraight": 6714,
      "Ġexhibition": 6715,
      "iley": 6716,
      "Ġcovers": 6717,
      "Ġchurches": 6718,
      "fit": 6719,
      "Ġburn": 6720,
      "Ġseem": 6721,
      "Ġrecip": 6722,
      "ĠArgentina": 6723,
      "85": 6724,
      "ĠCatal": 6725,
      "Ġcho": 6726,
      "jo": 6727,
      "Ġconverted": 6728,
      "à¸": 6729,
      "ĠUkraine": 6730,
      "1984": 6731,
      "While": 6732,
      "ĠCemetery": 6733,
      "Ġvent": 6734,
      "Ġtrees": 6735,
      "Ġreceiving": 6736,
      "ĠAuthor": 6737,
      "igation": 6738,
      "ĠReal": 6739,
      "udget": 6740,
      "Buildings": 6741,
      "Ġconsisted": 6742,
      "ĠYour": 6743,
      "ĠDream": 6744,
      "Ġeconomy": 6745,
      "Ġapplication": 6746,
      "Ġ2022": 6747,
      "wise": 6748,
      "lades": 6749,
      "Ġshared": 6750,
      "fficient": 6751,
      "orders": 6752,
      "ĠDur": 6753,
      "Reception": 6754,
      "ĠLieutenant": 6755,
      "osed": 6756,
      "Ġrear": 6757,
      "Ġactresses": 6758,
      "atab": 6759,
      "Ġvirt": 6760,
      "ĠZh": 6761,
      "Ġdropped": 6762,
      "Ġresc": 6763,
      "ĠVice": 6764,
      "Ġlearning": 6765,
      "pret": 6766,
      "mi": 6767,
      "dam": 6768,
      "Ġrain": 6769,
      "97": 6770,
      "ĠMit": 6771,
      "ĠRose": 6772,
      "Ġrang": 6773,
      "ĠBrian": 6774,
      "ĠPhys": 6775,
      "ĠStory": 6776,
      "evin": 6777,
      "Ġmis": 6778,
      "Ġfields": 6779,
      "ĠAdam": 6780,
      "Ġtennis": 6781,
      "lets": 6782,
      "AM": 6783,
      "ĠCOVID": 6784,
      "Mon": 6785,
      "incorporated": 6786,
      "Ġiron": 6787,
      "ĠDoctor": 6788,
      "ĠTerrit": 6789,
      "Italian": 6790,
      "awn": 6791,
      "unter": 6792,
      "ĠNow": 6793,
      "nie": 6794,
      "Ġliterary": 6795,
      "Ġrot": 6796,
      "IN": 6797,
      "Ġrepresenting": 6798,
      "ĠWell": 6799,
      "Ġpolic": 6800,
      "anes": 6801,
      "ĠEc": 6802,
      "94": 6803,
      "Ġguns": 6804,
      "oming": 6805,
      "ogen": 6806,
      "Ã©s": 6807,
      "ĠTel": 6808,
      "ĠAD": 6809,
      "ĠWy": 6810,
      "Ġsense": 6811,
      "Ġgirls": 6812,
      "Ġpowerful": 6813,
      "Ġbul": 6814,
      "ĠRoll": 6815,
      "secutive": 6816,
      "oa": 6817,
      "Ġperforming": 6818,
      "Ġletters": 6819,
      "Ġinternal": 6820,
      "Ġopposed": 6821,
      "Ġseg": 6822,
      "Ġmorning": 6823,
      "Ġhero": 6824,
      "ĠGram": 6825,
      "SC": 6826,
      "ĠAllen": 6827,
      "ista": 6828,
      "Ġdomestic": 6829,
      "Ġacts": 6830,
      "ĠHeart": 6831,
      "Ġharm": 6832,
      "agues": 6833,
      "\"),": 6834,
      "har": 6835,
      "rine": 6836,
      "inburgh": 6837,
      "uma": 6838,
      "stream": 6839,
      "Ġinhabit": 6840,
      "Ġmaximum": 6841,
      "92": 6842,
      "Ġoccupied": 6843,
      "stitutional": 6844,
      "ĠFinn": 6845,
      "ĠLouisiana": 6846,
      "run": 6847,
      "ĠKam": 6848,
      "ownt": 6849,
      "mit": 6850,
      "Ġretirement": 6851,
      "Ġvice": 6852,
      "Ġheight": 6853,
      "86": 6854,
      "Ġscheduled": 6855,
      "Ġaged": 6856,
      "fall": 6857,
      "ĠSilver": 6858,
      "Ġsum": 6859,
      "Ġnegoti": 6860,
      "ĠKy": 6861,
      "ĠKl": 6862,
      "Roman": 6863,
      "ĠCommonwealth": 6864,
      "ĠBack": 6865,
      "Ġcandidates": 6866,
      "ĠAle": 6867,
      "Ġdirectors": 6868,
      "ĠNa": 6869,
      "ĠExpress": 6870,
      "Ġsay": 6871,
      "Ġrepresentative": 6872,
      "Ġsportspeople": 6873,
      "Ġemployed": 6874,
      "Ġsoccer": 6875,
      "Ġconvers": 6876,
      "1983": 6877,
      "phas": 6878,
      "Ġsetting": 6879,
      "ĠBelgium": 6880,
      "Ġtrust": 6881,
      "fe": 6882,
      "Ġalternative": 6883,
      "redited": 6884,
      "ĠCost": 6885,
      "ĠNative": 6886,
      "Ġdefense": 6887,
      "acent": 6888,
      "Ġauth": 6889,
      "Ġidentity": 6890,
      "ĠExecutive": 6891,
      "aza": 6892,
      "Ġfocused": 6893,
      "Expatriate": 6894,
      "Ġcompar": 6895,
      "Ġshortly": 6896,
      "oking": 6897,
      "Ġrecognition": 6898,
      "Ġbra": 6899,
      "93": 6900,
      "Ġcategory": 6901,
      "ĠDouglas": 6902,
      "Ġsynt": 6903,
      "Ġextensive": 6904,
      "Ġincident": 6905,
      "ĠWorks": 6906,
      "ĠNag": 6907,
      "des": 6908,
      "Ġpresidential": 6909,
      "ĠLike": 6910,
      "dale": 6911,
      "ĠProt": 6912,
      "Ġmagn": 6913,
      "car": 6914,
      "Reg": 6915,
      "ĠPatrick": 6916,
      "zi": 6917,
      "ĠChampions": 6918,
      "Ġconsult": 6919,
      "Ġairport": 6920,
      "ĠChildren": 6921,
      "To": 6922,
      "Ġprepar": 6923,
      "ĠSwiss": 6924,
      "ĠRun": 6925,
      "ĠBerg": 6926,
      "Ġdetect": 6927,
      "ĠGordon": 6928,
      "Ġox": 6929,
      "Ġonto": 6930,
      "ĠSquare": 6931,
      "Ġbey": 6932,
      "Ġchampions": 6933,
      "ĠYouth": 6934,
      "Ġappoint": 6935,
      "Ġqualified": 6936,
      "Ġgeneration": 6937,
      "Ġspeech": 6938,
      "ĠHouston": 6939,
      "Ant": 6940,
      "ĠKarl": 6941,
      "ĠBrand": 6942,
      "ĠJay": 6943,
      "Ġdriver": 6944,
      "Ab": 6945,
      "Some": 6946,
      "from": 6947,
      "ĠTaiwan": 6948,
      "Ġdetermined": 6949,
      "Ġscript": 6950,
      "Ġmulti": 6951,
      "ĠMississippi": 6952,
      "Ġ1913": 6953,
      "Ġkilling": 6954,
      "ext": 6955,
      "Ġfunctions": 6956,
      "Official": 6957,
      "ĠLas": 6958,
      "ĠTrib": 6959,
      "Ġcorner": 6960,
      "Ġapparent": 6961,
      "Ġultimately": 6962,
      "Ġlands": 6963,
      "Ġhighway": 6964,
      "ĠLiberal": 6965,
      "scape": 6966,
      "ĠAnthony": 6967,
      "Play": 6968,
      "ĠBureau": 6969,
      "Ġdecor": 6970,
      "Ã¥": 6971,
      "Ġbegin": 6972,
      "Ġguard": 6973,
      "ĠVillage": 6974,
      "appe": 6975,
      "hr": 6976,
      "Ġneeds": 6977,
      "rac": 6978,
      "Ġpermanent": 6979,
      "ĠKaz": 6980,
      "Ġoffices": 6981,
      "ĠClark": 6982,
      "ĠVis": 6983,
      "Description": 6984,
      "structure": 6985,
      "ĠDenmark": 6986,
      "ĠAge": 6987,
      "ĠPuerto": 6988,
      "Ġmind": 6989,
      "ĠRound": 6990,
      "veland": 6991,
      "ĠDak": 6992,
      "Ġweapons": 6993,
      "Ġmatter": 6994,
      "cycl": 6995,
      "ĠPortugal": 6996,
      "Ġtechnical": 6997,
      "Ġcontributed": 6998,
      "Ġenvironmental": 6999,
      "ocation": 7000,
      "Ġinstall": 7001,
      "ĠPot": 7002,
      "Ġoccurs": 7003,
      "Ġ300": 7004,
      "illing": 7005,
      "gency": 7006,
      "oyd": 7007,
      "rect": 7008,
      "issance": 7009,
      "ĠLegislative": 7010,
      "ĠDanish": 7011,
      "Ġherself": 7012,
      "ryst": 7013,
      "olley": 7014,
      "Final": 7015,
      "Ġfuel": 7016,
      "ĠGre": 7017,
      "Ġkil": 7018,
      "ĠWhit": 7019,
      "Japanese": 7020,
      "Ġcenturies": 7021,
      "thodox": 7022,
      "Ġenjoy": 7023,
      "Ġbeyond": 7024,
      "Ġcontrast": 7025,
      "ĠHeritage": 7026,
      "Leg": 7027,
      "ache": 7028,
      "ĠÃī": 7029,
      "yers": 7030,
      "Ġstadium": 7031,
      "di": 7032,
      "Ġconsecutive": 7033,
      "Arch": 7034,
      "elson": 7035,
      "ĠBou": 7036,
      "Ġprotest": 7037,
      "ĠUN": 7038,
      "ĠSky": 7039,
      "die": 7040,
      "1982": 7041,
      "Sup": 7042,
      "ĠSin": 7043,
      "ĠPope": 7044,
      "uration": 7045,
      "Ġflu": 7046,
      "Ġfunding": 7047,
      "Ġavoid": 7048,
      "ĠBowl": 7049,
      "Ġpaintings": 7050,
      "Ġalleged": 7051,
      "Ġsector": 7052,
      "ĠTun": 7053,
      "isms": 7054,
      "point": 7055,
      "rant": 7056,
      "1960": 7057,
      "ĠTar": 7058,
      "Ġjur": 7059,
      "icts": 7060,
      "Ġnuclear": 7061,
      "ĠEag": 7062,
      "Ġhotel": 7063,
      "finals": 7064,
      "ĠRab": 7065,
      "Ġmerch": 7066,
      "Ġpoetry": 7067,
      "Ġ1911": 7068,
      "ĠAntonio": 7069,
      "Ġtouchdown": 7070,
      "ĠBeat": 7071,
      "Per": 7072,
      "Ġways": 7073,
      "ĠPap": 7074,
      "Her": 7075,
      "Ġsust": 7076,
      "Ġspok": 7077,
      "ĠInformation": 7078,
      "Ġ1908": 7079,
      "Ġimpl": 7080,
      "Ġrefers": 7081,
      "long": 7082,
      "tsburgh": 7083,
      "ĠHawai": 7084,
      "Ele": 7085,
      "Ġring": 7086,
      "ĠMand": 7087,
      "Ġlawyer": 7088,
      "Ġglass": 7089,
      "Ġinaug": 7090,
      "ĠOrchestra": 7091,
      "Ġrein": 7092,
      "Ġenemy": 7093,
      "Ġfashion": 7094,
      "Ġpatients": 7095,
      "Har": 7096,
      "Ġpieces": 7097,
      "Ġhydro": 7098,
      "Ġmerged": 7099,
      "stead": 7100,
      "Ġcas": 7101,
      "Ġcompris": 7102,
      "otte": 7103,
      "Ġ@": 7104,
      "raf": 7105,
      "uilt": 7106,
      "Ġreligion": 7107,
      "ayan": 7108,
      "Medal": 7109,
      "ĠJam": 7110,
      "Ġovers": 7111,
      "ologies": 7112,
      "ĠIsraeli": 7113,
      "allel": 7114,
      "ĠGer": 7115,
      "ĠDublin": 7116,
      "ĠVin": 7117,
      "Ġsupporting": 7118,
      "Ġwrite": 7119,
      "ĠJuan": 7120,
      "anger": 7121,
      "ĠDal": 7122,
      "imore": 7123,
      "Ġdoctor": 7124,
      "ĠPhill": 7125,
      "ĠHotel": 7126,
      "Football": 7127,
      "Ġplanning": 7128,
      "ĠKu": 7129,
      "Ġinvestigation": 7130,
      "ĠGard": 7131,
      "Ġindependence": 7132,
      "Ġreasons": 7133,
      "Ġviolence": 7134,
      "iki": 7135,
      "ĠDVD": 7136,
      "ĠThird": 7137,
      "night": 7138,
      "Ep": 7139,
      "Villages": 7140,
      "Ġfaced": 7141,
      "Ġhyp": 7142,
      "iab": 7143,
      "Ġeducational": 7144,
      "mith": 7145,
      "Rep": 7146,
      "Ġphase": 7147,
      "Ġvalley": 7148,
      "Ġholding": 7149,
      "pen": 7150,
      "Ġfailure": 7151,
      "ourses": 7152,
      "ĠAmong": 7153,
      "ĠReport": 7154,
      "Ġestablishment": 7155,
      "Ã´": 7156,
      "ĠInternet": 7157,
      "ĠLin": 7158,
      "Port": 7159,
      "adow": 7160,
      "arks": 7161,
      "ĠChall": 7162,
      "Ġsteel": 7163,
      "Ġpowers": 7164,
      "come": 7165,
      "oviÄĩ": 7166,
      "found": 7167,
      "active": 7168,
      "ĠEdinburgh": 7169,
      "Railway": 7170,
      "ĠDetroit": 7171,
      "ĠKa": 7172,
      "azines": 7173,
      "Ġpoly": 7174,
      "East": 7175,
      "Ġrough": 7176,
      "Ġsuccessfully": 7177,
      "ĠLanc": 7178,
      "Ġderived": 7179,
      "AP": 7180,
      "Ġslightly": 7181,
      "ĠIslamic": 7182,
      "ographical": 7183,
      "ĠBrazilian": 7184,
      "Ġ42": 7185,
      "Ġfinds": 7186,
      "Ġrival": 7187,
      "Ġcollected": 7188,
      "ĠFM": 7189,
      "ĠMach": 7190,
      "ĠFrederick": 7191,
      "Pol": 7192,
      "Ġfranch": 7193,
      "Ġimpr": 7194,
      "rome": 7195,
      "Ġdeveloping": 7196,
      "ĠImperial": 7197,
      "Ġsac": 7198,
      "1979": 7199,
      "ÃŃn": 7200,
      "ĠMoore": 7201,
      "hat": 7202,
      "Ġprogramme": 7203,
      "Ġabandoned": 7204,
      "ourney": 7205,
      "ĠPalest": 7206,
      "Ġadvant": 7207,
      "icide": 7208,
      "ĠNar": 7209,
      "antasy": 7210,
      "ĠAbout": 7211,
      "Ġequal": 7212,
      "iful": 7213,
      "Ġsought": 7214,
      "Ġpartnership": 7215,
      "nergy": 7216,
      "ailand": 7217,
      "Over": 7218,
      "otic": 7219,
      "Ġarrang": 7220,
      "Ġdeploy": 7221,
      "ĠOak": 7222,
      "lease": 7223,
      "ules": 7224,
      "while": 7225,
      "ĠBry": 7226,
      "seud": 7227,
      "Ġwealth": 7228,
      "ĠSel": 7229,
      "Ġvisual": 7230,
      "Ġmarg": 7231,
      "ĠIndonesia": 7232,
      "Ġexpressed": 7233,
      "Ġreign": 7234,
      "obe": 7235,
      "ĠDark": 7236,
      "Ġ75": 7237,
      "ĠMrs": 7238,
      "ĠFund": 7239,
      "Ġtry": 7240,
      "ĠBan": 7241,
      "ĠRoc": 7242,
      "Ġwalls": 7243,
      "ails": 7244,
      "III": 7245,
      "ho": 7246,
      "Ġquant": 7247,
      "ĠCommander": 7248,
      "Ġtemperature": 7249,
      "ĠHarris": 7250,
      "Ġcastle": 7251,
      "Ġmand": 7252,
      "\").": 7253,
      "borough": 7254,
      "ĠJordan": 7255,
      "ĠColomb": 7256,
      "allas": 7257,
      "Ġpun": 7258,
      "isters": 7259,
      "rama": 7260,
      "ĠSeat": 7261,
      "1981": 7262,
      "ĠBuddh": 7263,
      "Ġencourag": 7264,
      "Ġcalls": 7265,
      "oni": 7266,
      "91": 7267,
      "ĠInn": 7268,
      "Ä«": 7269,
      "Ġethnic": 7270,
      "Ġkick": 7271,
      "zer": 7272,
      "Ġyour": 7273,
      "Ġconnection": 7274,
      "hematics": 7275,
      "ĠArkansas": 7276,
      "apted": 7277,
      "My": 7278,
      "Ġcomput": 7279,
      "Ġ400": 7280,
      "enezuel": 7281,
      "ĠRoberts": 7282,
      "Ðº": 7283,
      "orage": 7284,
      "friend": 7285,
      "Ġcricketers": 7286,
      "Ġregarding": 7287,
      "Ġsand": 7288,
      "ellows": 7289,
      "ĠStudios": 7290,
      "ĠHills": 7291,
      "hard": 7292,
      "usal": 7293,
      "ĠDist": 7294,
      "Ġbrown": 7295,
      "unction": 7296,
      "Ġinvited": 7297,
      "Ġceremony": 7298,
      "Ġorders": 7299,
      "ĠIS": 7300,
      "Ġpriest": 7301,
      "ĠMcG": 7302,
      "ĠAmb": 7303,
      "Ġsan": 7304,
      "ĠJesus": 7305,
      "kee": 7306,
      "vements": 7307,
      "ishops": 7308,
      "fully": 7309,
      "after": 7310,
      "ĠMaur": 7311,
      "file": 7312,
      "Ġworldwide": 7313,
      "Ġfinishing": 7314,
      "Ġresigned": 7315,
      "racy": 7316,
      "Ã«": 7317,
      "top": 7318,
      "ĠSamuel": 7319,
      "Ġfunds": 7320,
      "87": 7321,
      "ĠTig": 7322,
      "orf": 7323,
      "hing": 7324,
      "equ": 7325,
      "Ġstrike": 7326,
      "uster": 7327,
      "ĠFern": 7328,
      "Ġconstant": 7329,
      "ĠGarden": 7330,
      "uj": 7331,
      "ĠPa": 7332,
      "Ġtranslation": 7333,
      "Ġentrance": 7334,
      "ĠStew": 7335,
      "Ġfleet": 7336,
      "Ġvarian": 7337,
      "ĠAdministration": 7338,
      "nia": 7339,
      "%.": 7340,
      "ĠDa": 7341,
      "ĠFac": 7342,
      "Ġpassenger": 7343,
      "chell": 7344,
      "ourse": 7345,
      "Ġconce": 7346,
      "igious": 7347,
      "orus": 7348,
      "ĠMoon": 7349,
      "OR": 7350,
      "Ġescape": 7351,
      "Ġpassing": 7352,
      "Ġdoing": 7353,
      "Ġfresh": 7354,
      "Pre": 7355,
      "Car": 7356,
      "Ġemp": 7357,
      "aved": 7358,
      "Ġvoted": 7359,
      "iamond": 7360,
      "IV": 7361,
      "ĊĊĠĊ": 7362,
      "ĠCru": 7363,
      "isf": 7364,
      "where": 7365,
      "84": 7366,
      "Bel": 7367,
      "Ġscale": 7368,
      ")\"": 7369,
      "Ġpasses": 7370,
      "Ġcrow": 7371,
      "Ġinstru": 7372,
      "olt": 7373,
      "Ġprotect": 7374,
      "Ġemphas": 7375,
      "Ġjunior": 7376,
      "Ġcontained": 7377,
      "ĠIndependent": 7378,
      "Ġformal": 7379,
      "Ġinfluenced": 7380,
      "Ġcriminal": 7381,
      "don": 7382,
      "ĠAlan": 7383,
      "ĠDC": 7384,
      "ĠCensus": 7385,
      "ĠSport": 7386,
      "Ġdecre": 7387,
      "Ġstating": 7388,
      "ĠMalaysia": 7389,
      "Ġrise": 7390,
      "Ġclin": 7391,
      "ype": 7392,
      "Ġselection": 7393,
      "ando": 7394,
      "ĠCow": 7395,
      "Ġadult": 7396,
      "Ġcausing": 7397,
      "ĠHarvard": 7398,
      "term": 7399,
      "Ġboat": 7400,
      "father": 7401,
      "rik": 7402,
      "Ġdates": 7403,
      "poses": 7404,
      "ĠMicro": 7405,
      "Ġexistence": 7406,
      "Ġstandards": 7407,
      "Ġdecades": 7408,
      "Ġinjured": 7409,
      "Major": 7410,
      "Ġincorporated": 7411,
      "Ġinvolving": 7412,
      "83": 7413,
      "Ġextrem": 7414,
      "ĠMayor": 7415,
      "ĠGian": 7416,
      "rena": 7417,
      "Transport": 7418,
      "Former": 7419,
      "Ġpublications": 7420,
      "fecture": 7421,
      "ĠFil": 7422,
      "enz": 7423,
      "owntown": 7424,
      "ailed": 7425,
      "Ġmel": 7426,
      "ĠThrough": 7427,
      "Ġvo": 7428,
      "apolis": 7429,
      "Ġengines": 7430,
      "Part": 7431,
      "rav": 7432,
      "Ġviews": 7433,
      "Ġpione": 7434,
      "ĠFarm": 7435,
      "Ġislands": 7436,
      "angel": 7437,
      "Ġinhabitants": 7438,
      "Ġcru": 7439,
      "Ġhired": 7440,
      "Ġshape": 7441,
      "Ġeffic": 7442,
      "Ġcarry": 7443,
      "apes": 7444,
      "Ġtrav": 7445,
      "erved": 7446,
      "Ġsomeone": 7447,
      "ĠLyn": 7448,
      "Ġobjects": 7449,
      "Rober": 7450,
      "Ã³w": 7451,
      "lem": 7452,
      "burn": 7453,
      "Flor": 7454,
      "ĠPed": 7455,
      "82": 7456,
      "1978": 7457,
      "Ġbands": 7458,
      "Ġconstituency": 7459,
      "UK": 7460,
      "ĠBefore": 7461,
      "Ġaid": 7462,
      "ĠSingh": 7463,
      "ĠArchite": 7464,
      "Ġchemical": 7465,
      "ĠFinland": 7466,
      "ĠSud": 7467,
      "Ġcomic": 7468,
      "Ġtownship": 7469,
      "Ġsolid": 7470,
      "Europe": 7471,
      "rak": 7472,
      "ithuan": 7473,
      "ĠRecord": 7474,
      "idden": 7475,
      "ĠTamil": 7476,
      "Ġ1890": 7477,
      "star": 7478,
      "ĠMiami": 7479,
      "Cent": 7480,
      "set": 7481,
      "ĠBanglades": 7482,
      "Ġreflect": 7483,
      "Ġgar": 7484,
      "Ġdetails": 7485,
      "Ġfram": 7486,
      "Ġdynasty": 7487,
      "ĠWalker": 7488,
      "ĠPlace": 7489,
      "Ġsoci": 7490,
      "ĠClin": 7491,
      "David": 7492,
      "Although": 7493,
      "Ġanimal": 7494,
      "rane": 7495,
      "Ġanaly": 7496,
      "Ġtend": 7497,
      "rett": 7498,
      "ĠHunt": 7499,
      "Ġlaid": 7500,
      "oria": 7501,
      "ĠFriend": 7502,
      "million": 7503,
      "Ju": 7504,
      "ners": 7505,
      "Ġinstalled": 7506,
      "ĠRugby": 7507,
      "ĠChairman": 7508,
      "othing": 7509,
      "Ġheavily": 7510,
      "ĠLam": 7511,
      "Ġpup": 7512,
      "Ste": 7513,
      "ĠDick": 7514,
      "Mich": 7515,
      "ĠAndre": 7516,
      "las": 7517,
      "ĠAlban": 7518,
      "Ġmaintained": 7519,
      "heel": 7520,
      "Ġstarts": 7521,
      "'m": 7522,
      "eties": 7523,
      "Ġscenes": 7524,
      "Ġpromote": 7525,
      "Ġmart": 7526,
      "ĠGlobal": 7527,
      "Ġreserve": 7528,
      "Ġwatch": 7529,
      "Ġbodies": 7530,
      "ĠAC": 7531,
      "ugoslav": 7532,
      "rations": 7533,
      "Ġtrying": 7534,
      "hop": 7535,
      "1977": 7536,
      "vant": 7537,
      "Ġopin": 7538,
      "Ġrequest": 7539,
      "ĠWho": 7540,
      "ĠReserve": 7541,
      "Ġrecordings": 7542,
      "ĠLawrence": 7543,
      "ĠBecause": 7544,
      "aby": 7545,
      "ĠAustrian": 7546,
      "irds": 7547,
      "Ġwarn": 7548,
      "Ġconsisting": 7549,
      "clusion": 7550,
      "arsh": 7551,
      "Ġadvoc": 7552,
      "ivalent": 7553,
      "Russian": 7554,
      "Ġda": 7555,
      "Ġpull": 7556,
      "ĠAfghan": 7557,
      "eland": 7558,
      "ĠHistorical": 7559,
      "Ġregistered": 7560,
      "ĠDeputy": 7561,
      "ĠHop": 7562,
      "election": 7563,
      "Ġadvent": 7564,
      "ĠMem": 7565,
      "ĠPeters": 7566,
      "ĠToday": 7567,
      "ĠDyn": 7568,
      "Ġanimated": 7569,
      "ĠRights": 7570,
      "Ġargued": 7571,
      "Ġped": 7572,
      "Ġbishop": 7573,
      "ivate": 7574,
      "Ġobserved": 7575,
      "lete": 7576,
      "81": 7577,
      ".âĢĿ": 7578,
      "Ġbehavior": 7579,
      "ĠHug": 7580,
      "ĠRow": 7581,
      "GBT": 7582,
      "Ġtun": 7583,
      "Ġsurvey": 7584,
      "elli": 7585,
      "ovo": 7586,
      "Ġemployees": 7587,
      "wen": 7588,
      "riff": 7589,
      "RC": 7590,
      "urday": 7591,
      "ĠHollywood": 7592,
      "then": 7593,
      "Ġintroduction": 7594,
      "ĠDave": 7595,
      "Ġengaged": 7596,
      "ĠRailroad": 7597,
      "Ġconcluded": 7598,
      "Ġmole": 7599,
      "olph": 7600,
      "ĠMcK": 7601,
      "Ġtranslated": 7602,
      "ĠPlayer": 7603,
      "Ġtoward": 7604,
      "ĠCall": 7605,
      "Ġapplications": 7606,
      "ĠRural": 7607,
      "ĠAM": 7608,
      "ĠMatthew": 7609,
      "Ġcompete": 7610,
      "Ġprotein": 7611,
      "ĠNob": 7612,
      "Video": 7613,
      "Ġtrained": 7614,
      "Ġbacking": 7615,
      "argo": 7616,
      "atin": 7617,
      "Ġstatement": 7618,
      "Ġspecifically": 7619,
      "ĠBasketball": 7620,
      "emen": 7621,
      "ĠUtah": 7622,
      "ĠMontreal": 7623,
      "1974": 7624,
      "Ġexperien": 7625,
      "Ġproved": 7626,
      "Ġimportance": 7627,
      "ĠPrad": 7628,
      "Ġpraised": 7629,
      "ĠOnly": 7630,
      "idel": 7631,
      "Histor": 7632,
      "intend": 7633,
      "ĠProte": 7634,
      "unc": 7635,
      "1975": 7636,
      "ĠBart": 7637,
      "Ġimprove": 7638,
      "Ġpremiered": 7639,
      "Ġplot": 7640,
      "Ġbirds": 7641,
      "Ġpages": 7642,
      "Ġment": 7643,
      "ĠAlexand": 7644,
      "Ġanth": 7645,
      "Ġprice": 7646,
      "Ġsecretary": 7647,
      "Ġexped": 7648,
      "pective": 7649,
      "ĠMPs": 7650,
      "Ġsuperv": 7651,
      "1976": 7652,
      "ĠErn": 7653,
      "ĠThailand": 7654,
      "Ġreaching": 7655,
      "Ġfoundation": 7656,
      "ĠEnvironment": 7657,
      "ellite": 7658,
      "mers": 7659,
      "Ġnom": 7660,
      "white": 7661,
      "ĠGa": 7662,
      "Ġlicens": 7663,
      "ãĤ": 7664,
      "lon": 7665,
      "Ġtor": 7666,
      "Ġnick": 7667,
      "uses": 7668,
      "ĠWelsh": 7669,
      "Ġhomes": 7670,
      "Ġhair": 7671,
      "emble": 7672,
      "Ġpossess": 7673,
      "ĠGrant": 7674,
      "Ġnegative": 7675,
      "itionally": 7676,
      "ĠCommunist": 7677,
      "Ġreality": 7678,
      "Ġ;": 7679,
      "Ġtropical": 7680,
      "Ġlimit": 7681,
      "inter": 7682,
      "Ġpainters": 7683,
      "ĠLast": 7684,
      "atherine": 7685,
      "Ġheard": 7686,
      "ĠHungary": 7687,
      "DP": 7688,
      "anny": 7689,
      "Ġ1906": 7690,
      "EE": 7691,
      "Ġ1905": 7692,
      "Ġtwelve": 7693,
      "ĠShah": 7694,
      "Ġarchae": 7695,
      "Ġdescribes": 7696,
      "ĠThen": 7697,
      "Ġproducing": 7698,
      "ĠLang": 7699,
      "ĠFal": 7700,
      "ashi": 7701,
      "Ġgrade": 7702,
      "itals": 7703,
      "Ġvolunte": 7704,
      "Ġcauses": 7705,
      "Works": 7706,
      "amic": 7707,
      "do": 7708,
      "including": 7709,
      "ĠPalace": 7710,
      "Ġjoining": 7711,
      "assador": 7712,
      "ĠEarly": 7713,
      "Ġ1909": 7714,
      "Ġideas": 7715,
      "Ġ41": 7716,
      "ĠKings": 7717,
      "Sub": 7718,
      "Ġagency": 7719,
      "ĠExt": 7720,
      "mat": 7721,
      "á»": 7722,
      "Ġstrateg": 7723,
      "Ġuncle": 7724,
      "Ġbelieve": 7725,
      "Sch": 7726,
      "Bar": 7727,
      "ĠTreat": 7728,
      "Ġrevolution": 7729,
      "Ġentirely": 7730,
      "Ġimages": 7731,
      "oda": 7732,
      "rastructure": 7733,
      "ĠChampion": 7734,
      "Ġarmed": 7735,
      "AN": 7736,
      "inea": 7737,
      "Ġ1907": 7738,
      "ĠIron": 7739,
      "ĠAnna": 7740,
      "Ġthrow": 7741,
      "ĠMountains": 7742,
      "ĠAtlanta": 7743,
      "ĠJosÃ©": 7744,
      "Ġaffected": 7745,
      "ĠYan": 7746,
      "Ġsteam": 7747,
      "uda": 7748,
      "Ġresistance": 7749,
      "Ġban": 7750,
      "ĠJohann": 7751,
      "haps": 7752,
      "Ġassess": 7753,
      "Ġvide": 7754,
      "Ġweather": 7755,
      "Ġdistinct": 7756,
      "Ġsale": 7757,
      "1972": 7758,
      "anned": 7759,
      "ige": 7760,
      "ĠDonald": 7761,
      "ĠRomania": 7762,
      "Ġbatter": 7763,
      "ĠBull": 7764,
      "aire": 7765,
      "Political": 7766,
      "owned": 7767,
      "ĠHampshire": 7768,
      "Ġtechniques": 7769,
      "ĠLiver": 7770,
      "ĠHungarian": 7771,
      "Scott": 7772,
      "ĠMetropolitan": 7773,
      "Ġexerc": 7774,
      "ĠRace": 7775,
      "Ġacid": 7776,
      "inking": 7777,
      "Ġille": 7778,
      "Ġadapted": 7779,
      "ĠDefense": 7780,
      "inct": 7781,
      "going": 7782,
      "olleyball": 7783,
      "Ġchoice": 7784,
      "Ġclosely": 7785,
      "Ġcomposition": 7786,
      "ĠRyan": 7787,
      "Ġruled": 7788,
      "Ġcopy": 7789,
      "Ġcomposers": 7790,
      "ĠFall": 7791,
      "Ġsymbol": 7792,
      "ĠGon": 7793,
      "ĠAlfred": 7794,
      "Ġgain": 7795,
      "1973": 7796,
      "James": 7797,
      "Ġgenera": 7798,
      "ĠBoys": 7799,
      "inian": 7800,
      "ĠVienna": 7801,
      "Ġextension": 7802,
      "August": 7803,
      "ĠLaure": 7804,
      "ĠDeath": 7805,
      "Bra": 7806,
      "ĠOttoman": 7807,
      "uki": 7808,
      "aman": 7809,
      "Ġbriefly": 7810,
      "pers": 7811,
      "ducing": 7812,
      "Ġzone": 7813,
      "Ġvalues": 7814,
      "cia": 7815,
      "icit": 7816,
      "Ġprize": 7817,
      "boards": 7818,
      "ussion": 7819,
      "Ġshall": 7820,
      "Ġaccused": 7821,
      "Ġedited": 7822,
      "asa": 7823,
      "entially": 7824,
      "Writ": 7825,
      "ushed": 7826,
      "ahn": 7827,
      "Ġedge": 7828,
      "ĠPublishing": 7829,
      "ĠVeg": 7830,
      "ampton": 7831,
      "Ġcorpor": 7832,
      "level": 7833,
      "ĠOriginal": 7834,
      "ĠRub": 7835,
      "ÅĦ": 7836,
      "Ġdeleg": 7837,
      "Ġshell": 7838,
      "Cal": 7839,
      "ĠDance": 7840,
      "onomy": 7841,
      "Ġaccompan": 7842,
      "ĠDisney": 7843,
      "Ġgraduate": 7844,
      "ĠAdvent": 7845,
      "Ġdivers": 7846,
      "Ġupd": 7847,
      "Family": 7848,
      "Ġreduce": 7849,
      "ĠCEO": 7850,
      "ĠLog": 7851,
      "1950": 7852,
      "ultan": 7853,
      "Ġ1904": 7854,
      "Ġentertain": 7855,
      "ĠFurther": 7856,
      "dy": 7857,
      "Ġleads": 7858,
      "ĠFight": 7859,
      "Ġstrength": 7860,
      "gow": 7861,
      "LC": 7862,
      "FM": 7863,
      "Black": 7864,
      "ĠOrthodox": 7865,
      "Ġinvasion": 7866,
      "Ġusers": 7867,
      "ĠPeace": 7868,
      "Ġquite": 7869,
      "inae": 7870,
      "Ġresidence": 7871,
      "Ġax": 7872,
      "ES": 7873,
      "ĠKevin": 7874,
      "atabase": 7875,
      "Ġdoor": 7876,
      "song": 7877,
      "Ġcore": 7878,
      "Ġfactory": 7879,
      "Ġimproved": 7880,
      "Ġopportunity": 7881,
      "ĠRio": 7882,
      "thm": 7883,
      "Ġagricultural": 7884,
      "ĠCulture": 7885,
      "Group": 7886,
      "ĠNav": 7887,
      "Ġdivisions": 7888,
      "lay": 7889,
      "Ġproced": 7890,
      "TS": 7891,
      "Ġflat": 7892,
      "Ġsettle": 7893,
      "Ġsignal": 7894,
      "hab": 7895,
      "insula": 7896,
      "ĠChamber": 7897,
      "Production": 7898,
      "ĪĴ": 7899,
      "ÅŁ": 7900,
      "ĠMes": 7901,
      "Ġregarded": 7902,
      "iler": 7903,
      "ĠCleveland": 7904,
      "ĠMargaret": 7905,
      "ĠMorgan": 7906,
      "Ġlocality": 7907,
      "Ġinterior": 7908,
      "EFA": 7909,
      "Ġconvent": 7910,
      "Ġreally": 7911,
      "estyle": 7912,
      "Ġpossibly": 7913,
      "ĠPas": 7914,
      "Ġsurg": 7915,
      "ĠPatri": 7916,
      "Crit": 7917,
      "mingham": 7918,
      "rons": 7919,
      "Ġinform": 7920,
      "March": 7921,
      "Nor": 7922,
      "ĠWhat": 7923,
      "ĠAssoci": 7924,
      "ÈĻ": 7925,
      "Ġpand": 7926,
      "ĠPun": 7927,
      "Ġseventh": 7928,
      "aked": 7929,
      "ĠMedicine": 7930,
      "Ġcollaboration": 7931,
      "Ġdocuments": 7932,
      "aughters": 7933,
      "ĠEven": 7934,
      "inners": 7935,
      "BI": 7936,
      "Ġroads": 7937,
      "ĠCrown": 7938,
      "Ġphilosophy": 7939,
      "ĠAgency": 7940,
      "Ġlect": 7941,
      "DA": 7942,
      "ĠUkrainian": 7943,
      "Ġinterests": 7944,
      "Ġnorthwest": 7945,
      "Ġcompilation": 7946,
      "ĠDean": 7947,
      "avalry": 7948,
      "ĠGirls": 7949,
      "iac": 7950,
      "ĠMission": 7951,
      "ĠLl": 7952,
      "Ġmarine": 7953,
      "ĠDue": 7954,
      "Ġcalling": 7955,
      "ographics": 7956,
      "ogether": 7957,
      "ĠWard": 7958,
      "ĠFried": 7959,
      "Ġlat": 7960,
      "ĠGran": 7961,
      "Ġuniversities": 7962,
      "Most": 7963,
      "Ġelectronic": 7964,
      "ĠSac": 7965,
      "eta": 7966,
      "inch": 7967,
      "erbai": 7968,
      "1971": 7969,
      "Ġahead": 7970,
      "Ġ43": 7971,
      "Ġrailroad": 7972,
      "Ġapart": 7973,
      "Ġwrest": 7974,
      "ĠPittsburgh": 7975,
      "Ġexact": 7976,
      "Ġrating": 7977,
      "Ġactual": 7978,
      "ĠNep": 7979,
      "San": 7980,
      "Mal": 7981,
      "ĠRick": 7982,
      "Ġchose": 7983,
      "Ġcontrolled": 7984,
      "ĠRussell": 7985,
      "ĠSn": 7986,
      "Ġbudget": 7987,
      "etime": 7988,
      "Ãł": 7989,
      "Star": 7990,
      "ĠMetro": 7991,
      "ĠPur": 7992,
      "ĠFel": 7993,
      "Ġoperate": 7994,
      "arest": 7995,
      "Ġmist": 7996,
      "Ġ55": 7997,
      "coming": 7998,
      "Ġcontributions": 7999,
      "amo": 8000,
      "Ġpassengers": 8001,
      "Ġproducers": 8002,
      "ĠKnight": 8003,
      "cht": 8004,
      "Ġere": 8005,
      "icate": 8006,
      "Ġgetting": 8007,
      "Ġseconds": 8008,
      "onder": 8009,
      "atures": 8010,
      "Ġbelief": 8011,
      "Ġdistributed": 8012,
      "odge": 8013,
      "Ġ1880": 8014,
      "Ġemot": 8015,
      "aware": 8016,
      "ĠCre": 8017,
      "Ġflying": 8018,
      "ocratic": 8019,
      "ĠRy": 8020,
      "Ġparticipate": 8021,
      "Ġdemonst": 8022,
      "Ġhumans": 8023,
      "ht": 8024,
      "ĠDead": 8025,
      "Ġwaters": 8026,
      "Ġsubstant": 8027,
      "Ġitems": 8028,
      "Ġcombination": 8029,
      "Ġans": 8030,
      "ocracy": 8031,
      "Ġaer": 8032,
      "ĠColonel": 8033,
      "Ã¶r": 8034,
      "Ġmilit": 8035,
      "Ġsession": 8036,
      "ĠNeb": 8037,
      "ovation": 8038,
      "Ġdevice": 8039,
      "1968": 8040,
      "Ġconsequ": 8041,
      "umin": 8042,
      "Ġintelligence": 8043,
      "note": 8044,
      "Ġathletes": 8045,
      "ĠRoger": 8046,
      "Ġsinging": 8047,
      "ĠBruce": 8048,
      "bal": 8049,
      "Ġfine": 8050,
      "MP": 8051,
      "amples": 8052,
      "Ġgarden": 8053,
      "Ġobtain": 8054,
      "ugar": 8055,
      "uct": 8056,
      "Ġfavour": 8057,
      "Ġcrown": 8058,
      "ĠPear": 8059,
      "ĠGlas": 8060,
      "Ġearliest": 8061,
      "ĠKelly": 8062,
      "low": 8063,
      "ĠHom": 8064,
      "Ġadjacent": 8065,
      "uy": 8066,
      "Ġones": 8067,
      "cious": 8068,
      "pha": 8069,
      "ferred": 8070,
      "Rel": 8071,
      "Ġpros": 8072,
      "High": 8073,
      "tered": 8074,
      "Ġwitness": 8075,
      "ucks": 8076,
      "Ġcourses": 8077,
      "ĠPad": 8078,
      "ĠStewart": 8079,
      "ĠDakota": 8080,
      "ĠChem": 8081,
      "ĠBuck": 8082,
      "Ġrepeated": 8083,
      "Ġdie": 8084,
      "lie": 8085,
      "Ġcommitted": 8086,
      "oba": 8087,
      "ãģ": 8088,
      "Ġskills": 8089,
      "Ġcolonial": 8090,
      "Ġsurvived": 8091,
      "Ġancest": 8092,
      "Ġgrounds": 8093,
      "ĠSeattle": 8094,
      "Ġclean": 8095,
      "ĠOm": 8096,
      "Ġinterpret": 8097,
      "ĠAgric": 8098,
      "ĠJose": 8099,
      "ishment": 8100,
      "1969": 8101,
      "Ġreception": 8102,
      "Ġregiment": 8103,
      "ĠSaf": 8104,
      "Ã©n": 8105,
      "Ġmoment": 8106,
      "ĠBaltimore": 8107,
      "utation": 8108,
      "Ġstrip": 8109,
      "Ġsole": 8110,
      "RS": 8111,
      "ĠBrothers": 8112,
      "Ġcharges": 8113,
      "ĠCrit": 8114,
      "Ġparallel": 8115,
      "eless": 8116,
      "ĠVenezuel": 8117,
      "Ġ1903": 8118,
      "Ġsections": 8119,
      "IP": 8120,
      "Ġbroken": 8121,
      "Ġdismiss": 8122,
      "aska": 8123,
      "Ġseems": 8124,
      "ĠEnt": 8125,
      "ĠKennedy": 8126,
      "ĠKey": 8127,
      "olly": 8128,
      "Ġfly": 8129,
      "ĠMaine": 8130,
      "bach": 8131,
      "Ġselect": 8132,
      "ranean": 8133,
      "ĠNAS": 8134,
      "Ġgreatest": 8135,
      "Ġfeed": 8136,
      "bishop": 8137,
      "Orig": 8138,
      "omas": 8139,
      "Ġtank": 8140,
      "Paul": 8141,
      "hetic": 8142,
      "Ã¨re": 8143,
      "Ġgoods": 8144,
      "Ġ1901": 8145,
      "leased": 8146,
      "br": 8147,
      "iri": 8148,
      "Ġphotograph": 8149,
      "Ġterror": 8150,
      "ĠMarie": 8151,
      "ĠConstitution": 8152,
      "ĠAdams": 8153,
      "Alumni": 8154,
      "Ġchair": 8155,
      "ĠKan": 8156,
      "Ġhour": 8157,
      "ĠBuff": 8158,
      "rong": 8159,
      "Ġdesigns": 8160,
      "Ġgets": 8161,
      "ĠCampbell": 8162,
      "Ġcosts": 8163,
      "Ġdrawn": 8164,
      "ĠProdu": 8165,
      "Ġstanding": 8166,
      "--": 8167,
      "ĠCare": 8168,
      "sch": 8169,
      "arus": 8170,
      "Ġchain": 8171,
      "tic": 8172,
      "Ġdebuted": 8173,
      "Ġmort": 8174,
      "ĠSenator": 8175,
      "ĠVik": 8176,
      "Ġmedium": 8177,
      "ĠAlliance": 8178,
      "ĠComics": 8179,
      "Ġ1902": 8180,
      "Ġstores": 8181,
      "ĠOblast": 8182,
      "oca": 8183,
      "Ġexamples": 8184,
      "attan": 8185,
      "coh": 8186,
      "ĠBed": 8187,
      "ĠEnergy": 8188,
      "ĠBush": 8189,
      "Ġeasily": 8190,
      "Ġvenues": 8191,
      "ĠMichel": 8192,
      "ĠThompson": 8193,
      "ĠInvest": 8194,
      "osm": 8195,
      "orton": 8196,
      "pir": 8197,
      "aptist": 8198,
      "ĠHere": 8199,
      "ĠRand": 8200,
      "ĠLib": 8201,
      "|}": 8202,
      "person": 8203,
      "ĠRot": 8204,
      "Ġenl": 8205,
      "ĠNelson": 8206,
      "Ġpurposes": 8207,
      "Ġ46": 8208,
      "Ġmeasures": 8209,
      "Ġ47": 8210,
      "Ġtrip": 8211,
      "Ġmedicine": 8212,
      "Ġ52": 8213,
      "ĠNatural": 8214,
      "ĠArn": 8215,
      "Ġpersons": 8216,
      "Ġresign": 8217,
      "acc": 8218,
      "Ġrefuge": 8219,
      "Ġregularly": 8220,
      "Ġcapture": 8221,
      "Ġbottom": 8222,
      "ĠBetween": 8223,
      "orses": 8224,
      "Ġcourts": 8225,
      "ĠWright": 8226,
      "Ġdry": 8227,
      "ĠOpera": 8228,
      "Ġshowing": 8229,
      "Ġworth": 8230,
      "Ġsequence": 8231,
      "Ġowners": 8232,
      "ĠKon": 8233,
      "overty": 8234,
      "ĠBomb": 8235,
      "Spanish": 8236,
      "Ġfranchise": 8237,
      "Ġopposite": 8238,
      "eton": 8239,
      "Ġisol": 8240,
      "Ġheat": 8241,
      "Ġdamaged": 8242,
      "Ġclassification": 8243,
      "orkshire": 8244,
      "ĠPrincess": 8245,
      "Ġnaval": 8246,
      "itable": 8247,
      "Ġham": 8248,
      "via": 8249,
      "ME": 8250,
      "ĠAthletic": 8251,
      "ĠAy": 8252,
      "ĠSee": 8253,
      "Moths": 8254,
      "cyclop": 8255,
      "Ġsell": 8256,
      "hai": 8257,
      "ĠAustin": 8258,
      "Ġmyth": 8259,
      "Ġmotion": 8260,
      "Ġsuburb": 8261,
      "ser": 8262,
      "ĠLanka": 8263,
      "ĠWebsite": 8264,
      "ĠKo": 8265,
      "iggest": 8266,
      "ĠMunicipality": 8267,
      "Ġski": 8268,
      "Ġadvantage": 8269,
      "abled": 8270,
      "illo": 8271,
      "Ġgrant": 8272,
      "ĠLocal": 8273,
      "Bur": 8274,
      "ĠEver": 8275,
      "ĠRan": 8276,
      "sson": 8277,
      "Ġfactors": 8278,
      "Ġaware": 8279,
      "Ġstands": 8280,
      "June": 8281,
      "Ġtries": 8282,
      "Ġfaith": 8283,
      "ĠRud": 8284,
      "Ġlists": 8285,
      "wall": 8286,
      "town": 8287,
      "ĠLeban": 8288,
      "merce": 8289,
      "etry": 8290,
      "ĠOri": 8291,
      "ĠDigital": 8292,
      "Ġsuff": 8293,
      "Afric": 8294,
      "Ġveter": 8295,
      "ĠLet": 8296,
      "Ġpandemic": 8297,
      "Ġrejected": 8298,
      "Rich": 8299,
      "ifer": 8300,
      "Ġdefensive": 8301,
      "iation": 8302,
      "Ġanniversary": 8303,
      "Town": 8304,
      "ĠLiverpool": 8305,
      "Ġdies": 8306,
      "wright": 8307,
      "ĠPsych": 8308,
      "ĠGulf": 8309,
      "ĠHell": 8310,
      "ĠUC": 8311,
      "iop": 8312,
      "If": 8313,
      "Ġcycle": 8314,
      "resents": 8315,
      "Ġdelivered": 8316,
      "Ġrivers": 8317,
      "ĠABC": 8318,
      "Out": 8319,
      "Ġbusinesses": 8320,
      "Ġfreedom": 8321,
      "ĠFive": 8322,
      "irates": 8323,
      "Ev": 8324,
      "ĠNorman": 8325,
      "ĠRain": 8326,
      "Ġroutes": 8327,
      "ĠPrefecture": 8328,
      "Ġcommune": 8329,
      "George": 8330,
      "alia": 8331,
      "Ġshooting": 8332,
      "len": 8333,
      "Ġboys": 8334,
      "Ġhits": 8335,
      "ĠBangladesh": 8336,
      "orer": 8337,
      "Ġastron": 8338,
      "ĠCamer": 8339,
      "asure": 8340,
      "Ġsave": 8341,
      "alymp": 8342,
      "Ġsynd": 8343,
      "fessional": 8344,
      "Ġpublishing": 8345,
      "Ġcommunication": 8346,
      "Ġwhy": 8347,
      "hibition": 8348,
      "antly": 8349,
      "ouver": 8350,
      "ĠLane": 8351,
      "1967": 8352,
      "Ġreaction": 8353,
      "Ġpurchase": 8354,
      "ĠCollection": 8355,
      "operation": 8356,
      "ĠMarket": 8357,
      "ĠĠĠĠĠĠĠĠĠĠĠĠĠĠĠĠ": 8358,
      "din": 8359,
      "bridge": 8360,
      "Ġstreets": 8361,
      "hesis": 8362,
      "ĠArena": 8363,
      "ĠCer": 8364,
      "Ġsubmar": 8365,
      "Ġduty": 8366,
      "ĠThor": 8367,
      "Ġtur": 8368,
      "Ġcharged": 8369,
      "Ġbond": 8370,
      "Ġlegislation": 8371,
      "Ġscientists": 8372,
      "Ġattached": 8373,
      "Dr": 8374,
      "ilk": 8375,
      "Ġtypical": 8376,
      "Ġ150": 8377,
      "ĠNet": 8378,
      "ĠElement": 8379,
      "ĠAthletics": 8380,
      "ĠCricket": 8381,
      "isode": 8382,
      "ĠVolume": 8383,
      "Ġjudges": 8384,
      "ĠMethod": 8385,
      "ĠPC": 8386,
      "ĠRobinson": 8387,
      "Ġpremi": 8388,
      "Ġsouthwest": 8389,
      "dr": 8390,
      "ĠHend": 8391,
      "ĠGill": 8392,
      "ĠAgain": 8393,
      "Ġfinals": 8394,
      "Ġimprison": 8395,
      "Ġoperates": 8396,
      "Ġdesigner": 8397,
      "ĠCarter": 8398,
      "GA": 8399,
      "Ġdrivers": 8400,
      "Ġstages": 8401,
      "Ġdecade": 8402,
      "Ġuser": 8403,
      "rapy": 8404,
      "Ġdidn": 8405,
      "Ġpenal": 8406,
      "leans": 8407,
      "ĠFranklin": 8408,
      "Ġrich": 8409,
      "Ġvaria": 8410,
      "oka": 8411,
      "ĠBrooklyn": 8412,
      "ishments": 8413,
      "Ġbrig": 8414,
      "Ġhill": 8415,
      "olia": 8416,
      "Ġdescription": 8417,
      "ĠSax": 8418,
      "Ġdetermine": 8419,
      "Ġresidential": 8420,
      "Ġdoll": 8421,
      "Ġlink": 8422,
      "load": 8423,
      "ĠChen": 8424,
      "ĠChristopher": 8425,
      "ĠRico": 8426,
      "ĠNash": 8427,
      "ĠCathedral": 8428,
      "Ġnickn": 8429,
      "Ġdemand": 8430,
      "ĠJudge": 8431,
      "ĠSchools": 8432,
      "Ġbrain": 8433,
      "yll": 8434,
      "Ġ51": 8435,
      "Ġmemorial": 8436,
      "annels": 8437,
      "rec": 8438,
      "ĠGuide": 8439,
      "ĠCooper": 8440,
      "Robert": 8441,
      "Ġhunt": 8442,
      "Ġfan": 8443,
      "'re": 8444,
      "Ġcredited": 8445,
      "ĠKit": 8446,
      "Second": 8447,
      "Ġprisoners": 8448,
      "ĠDom": 8449,
      "Ġrestrict": 8450,
      "asi": 8451,
      "Ġaccommod": 8452,
      "Ġcircum": 8453,
      "plete": 8454,
      "April": 8455,
      "Ġadmitted": 8456,
      "ĠOur": 8457,
      "ĠScient": 8458,
      "ĠDallas": 8459,
      "eenth": 8460,
      "Ġdefeating": 8461,
      "ĠAuthority": 8462,
      "ĠCentury": 8463,
      "Ġarranged": 8464,
      "Ġinvestment": 8465,
      "Ġcriticized": 8466,
      "iah": 8467,
      "ĠMorris": 8468,
      "Ġrepresents": 8469,
      "ĠNon": 8470,
      "ĠYears": 8471,
      "ĠNord": 8472,
      "ĠConvention": 8473,
      "Ġwounded": 8474,
      "ĠSeason": 8475,
      "Ġdeputy": 8476,
      "rm": 8477,
      "Int": 8478,
      "ĠWoman": 8479,
      "ĠTraining": 8480,
      "Ġclimb": 8481,
      "Ġactivist": 8482,
      "iterranean": 8483,
      "ĠSoccer": 8484,
      "Ġprovincial": 8485,
      "Ġcrisis": 8486,
      "July": 8487,
      "Ġconqu": 8488,
      "September": 8489,
      "Ġreleg": 8490,
      "fiction": 8491,
      "ĠMaj": 8492,
      "Medalists": 8493,
      "astery": 8494,
      "Ġnotably": 8495,
      "Ġwings": 8496,
      "ĠSi": 8497,
      "Inter": 8498,
      "PC": 8499,
      "ĠCole": 8500,
      "ĠYorkshire": 8501,
      "Ġcontext": 8502,
      "Ġpainted": 8503,
      "ĠMurray": 8504,
      "ĠEmer": 8505,
      "ĠTrump": 8506,
      "acon": 8507,
      "October": 8508,
      "Ġegg": 8509,
      "Ġkid": 8510,
      "ĠOperation": 8511,
      "amps": 8512,
      "Albums": 8513,
      "eget": 8514,
      "Ġreturns": 8515,
      "EA": 8516,
      "cho": 8517,
      "endment": 8518,
      "pat": 8519,
      "Ġvictims": 8520,
      "ĠWol": 8521,
      "etta": 8522,
      "Ġuniform": 8523,
      "Ġfest": 8524,
      "Ġretail": 8525,
      "ilst": 8526,
      "ĠEqu": 8527,
      "Ġrooms": 8528,
      "ĠYugoslav": 8529,
      "League": 8530,
      "ĠFA": 8531,
      "profit": 8532,
      "Ġinstruments": 8533,
      "1945": 8534,
      "Ġinsc": 8535,
      "ĠMarshall": 8536,
      "Ġbusinessman": 8537,
      "ielder": 8538,
      "ĠVerm": 8539,
      "ĠSarah": 8540,
      "Ġdriving": 8541,
      "Ġminute": 8542,
      "Ġlooking": 8543,
      "ĠMadrid": 8544,
      "ĠDub": 8545,
      "ĠJimmy": 8546,
      "ĠBernard": 8547,
      "ĠWa": 8548,
      "Ġgang": 8549,
      "Ġsomew": 8550,
      "ĠMovement": 8551,
      "Ġdest": 8552,
      "Ġstarred": 8553,
      "ĠWing": 8554,
      "Bas": 8555,
      "err": 8556,
      "Ġrestored": 8557,
      "door": 8558,
      "onian": 8559,
      "Ġpool": 8560,
      "ĠLower": 8561,
      "Personnel": 8562,
      "sea": 8563,
      "Ġmine": 8564,
      "roc": 8565,
      "ĠTak": 8566,
      "rix": 8567,
      "Ġflo": 8568,
      "jamin": 8569,
      "ĠOrleans": 8570,
      "Ġdoub": 8571,
      "Ġ*": 8572,
      "icket": 8573,
      "ishers": 8574,
      "umbent": 8575,
      "Ġcarbon": 8576,
      "Ġdepend": 8577,
      "icial": 8578,
      "rang": 8579,
      "utions": 8580,
      "Å¾": 8581,
      "Ġretained": 8582,
      "Ġnor": 8583,
      "ĠFIFA": 8584,
      "ĠBroadcast": 8585,
      "race": 8586,
      "ĠSecret": 8587,
      "ĠRap": 8588,
      "iph": 8589,
      "Ġselling": 8590,
      "vy": 8591,
      "ĠTrade": 8592,
      "ĠThus": 8593,
      "ĠPy": 8594,
      "ĉĉ": 8595,
      "Ġbed": 8596,
      "Ġrob": 8597,
      "ĠBirmingham": 8598,
      "ĠSeveral": 8599,
      "Ġequivalent": 8600,
      "Ġpolicies": 8601,
      "Ġteen": 8602,
      "Ġattract": 8603,
      "ĠChand": 8604,
      "Ġcollections": 8605,
      "mund": 8606,
      "final": 8607,
      "Ġknock": 8608,
      "opal": 8609,
      "Ġtheore": 8610,
      "1965": 8611,
      "Ġassistance": 8612,
      "Ġ1898": 8613,
      "ĠGraham": 8614,
      "Ġassumed": 8615,
      "who": 8616,
      "ĠDefence": 8617,
      "Ġmining": 8618,
      "Ġnothing": 8619,
      "Two": 8620,
      "Ġrenew": 8621,
      "Ġlegend": 8622,
      "inces": 8623,
      "Ġsed": 8624,
      "Ġutil": 8625,
      "ĠStanley": 8626,
      "Ġaccompanied": 8627,
      "Ġdevices": 8628,
      "Ġpian": 8629,
      "Ġprotected": 8630,
      "Ġmanusc": 8631,
      "ĠBox": 8632,
      "host": 8633,
      "ivated": 8634,
      "Ġfactor": 8635,
      "Mc": 8636,
      "Ġtack": 8637,
      "1966": 8638,
      "=\"#": 8639,
      "edding": 8640,
      "HS": 8641,
      "1964": 8642,
      "tery": 8643,
      "inding": 8644,
      "ĠTrophy": 8645,
      "ĠApp": 8646,
      "Ġeye": 8647,
      "uis": 8648,
      "bat": 8649,
      "Ġdegrees": 8650,
      "ĠEconomic": 8651,
      "Ġdemonstr": 8652,
      "Ġcarrying": 8653,
      "Ġjump": 8654,
      "Ġ1870": 8655,
      "OC": 8656,
      "yles": 8657,
      "Ġcaught": 8658,
      "Ġcomed": 8659,
      "Ġtail": 8660,
      "ĠConservative": 8661,
      "Ġguitarist": 8662,
      "Ġchallenge": 8663,
      "Demographics": 8664,
      "ĠUpper": 8665,
      "ĠDaily": 8666,
      "ibbean": 8667,
      "Ġwave": 8668,
      "Ġheaded": 8669,
      "olds": 8670,
      "ĠBud": 8671,
      "End": 8672,
      "Ġaccur": 8673,
      "Im": 8674,
      "Ġdelay": 8675,
      "ĠNazi": 8676,
      "Ġbran": 8677,
      "Ġmeters": 8678,
      "Ġvideos": 8679,
      "ĠSaturday": 8680,
      "Ġmus": 8681,
      "Ġgender": 8682,
      "power": 8683,
      "ĠPradesh": 8684,
      "Ġtesting": 8685,
      "ĠCarlos": 8686,
      "Ġstood": 8687,
      "Ġinfl": 8688,
      "atters": 8689,
      "ĠAngl": 8690,
      "Ġalleg": 8691,
      "aired": 8692,
      "ĠLithuan": 8693,
      "lock": 8694,
      "Ġaf": 8695,
      "Ġjournalists": 8696,
      "Ġdating": 8697,
      "ĠChart": 8698,
      "ĠPortland": 8699,
      "ĠWrestling": 8700,
      "iece": 8701,
      "Ġqualifying": 8702,
      "Ġteachers": 8703,
      "Ġexperienced": 8704,
      "ĠVideo": 8705,
      "ĠLud": 8706,
      "ĠSerbia": 8707,
      "Ġnewspapers": 8708,
      "Ġexecuted": 8709,
      "lected": 8710,
      "Tube": 8711,
      "otal": 8712,
      "Ġdifference": 8713,
      "ĠCass": 8714,
      "Jew": 8715,
      "Ġprime": 8716,
      "ĠBelgian": 8717,
      "enger": 8718,
      "Ġfra": 8719,
      "Ġfired": 8720,
      "usalem": 8721,
      "cussion": 8722,
      "chers": 8723,
      "Ġphen": 8724,
      "ĠBilly": 8725,
      "Ġtheater": 8726,
      "Ġsun": 8727,
      "nik": 8728,
      "Ġmagazines": 8729,
      "Ġexpression": 8730,
      "orial": 8731,
      "owski": 8732,
      "ĠAqu": 8733,
      "ĠNad": 8734,
      "Ġoffensive": 8735,
      "ducational": 8736,
      "writers": 8737,
      "Ġcalc": 8738,
      "aments": 8739,
      "ĠML": 8740,
      "Ġhabitat": 8741,
      "Ġgrass": 8742,
      "ĠVic": 8743,
      "Ð»": 8744,
      "Ġmobile": 8745,
      "Ġseparated": 8746,
      "Ġpreced": 8747,
      "isd": 8748,
      "Ġduties": 8749,
      "riel": 8750,
      "otan": 8751,
      "ĠFace": 8752,
      "ĠImp": 8753,
      "Ġstopped": 8754,
      "ÃŁ": 8755,
      "ture": 8756,
      "iege": 8757,
      "Ġobl": 8758,
      "Ġstorage": 8759,
      "aran": 8760,
      "itime": 8761,
      "Ġrhy": 8762,
      "Ġcous": 8763,
      "tenance": 8764,
      "Ġracial": 8765,
      "DS": 8766,
      "Ġunsuccess": 8767,
      "ĠAT": 8768,
      "ĠAzerbai": 8769,
      "Ġdispl": 8770,
      "ĠSC": 8771,
      "audi": 8772,
      "Ġsignificantly": 8773,
      "formance": 8774,
      "Ġsevere": 8775,
      "Later": 8776,
      "1940": 8777,
      "ĠHorn": 8778,
      "agg": 8779,
      "ogle": 8780,
      "Ġneighbour": 8781,
      "Ġreferences": 8782,
      "ĠThough": 8783,
      "ulu": 8784,
      "ancouver": 8785,
      "Ãª": 8786,
      "Ġexplos": 8787,
      "Ġinvent": 8788,
      "Ġunderstanding": 8789,
      "ders": 8790,
      "ĠPictures": 8791,
      "ĠOt": 8792,
      "Ġri": 8793,
      "Fl": 8794,
      "away": 8795,
      "Ġpoem": 8796,
      "Ġotherwise": 8797,
      "Ġchance": 8798,
      "Ġresponsibility": 8799,
      "Ġinstitution": 8800,
      "ĠHit": 8801,
      "ĠSupport": 8802,
      "Ġinher": 8803,
      "ocol": 8804,
      "ĠGuy": 8805,
      "Ġconcerns": 8806,
      "gressive": 8807,
      "stances": 8808,
      "Ġthick": 8809,
      "ĠFather": 8810,
      "Ġincorpor": 8811,
      "heme": 8812,
      "Ġkilomet": 8813,
      "ellect": 8814,
      "Ġfictional": 8815,
      "mphony": 8816,
      "Ġ1899": 8817,
      "Ġturns": 8818,
      "Ġtall": 8819,
      "Ġcolour": 8820,
      "January": 8821,
      "Ġbringing": 8822,
      "ecution": 8823,
      "Ġmembership": 8824,
      "ĠNam": 8825,
      "ĠCook": 8826,
      "ĠMond": 8827,
      "ĠEvans": 8828,
      "Ġarrival": 8829,
      "Ġorganisation": 8830,
      "Ġcoastal": 8831,
      "iche": 8832,
      "ĠMack": 8833,
      "Ġmouth": 8834,
      "kov": 8835,
      "Ġcited": 8836,
      "Ġlearned": 8837,
      "Ġadvis": 8838,
      "ĠConfeder": 8839,
      "Ġjustice": 8840,
      "ĠIvan": 8841,
      "ects": 8842,
      "Ġshel": 8843,
      "European": 8844,
      "Ġrunner": 8845,
      "ĠVers": 8846,
      "Ġmedieval": 8847,
      "ĠGlasgow": 8848,
      "iency": 8849,
      "ĠJazz": 8850,
      "Ġliqu": 8851,
      "Ġcriticism": 8852,
      "raska": 8853,
      "ĠTigers": 8854,
      "Ġsubjects": 8855,
      "ĠBlues": 8856,
      "avan": 8857,
      "ĠCarm": 8858,
      "Ġassault": 8859,
      "master": 8860,
      "ĠRest": 8861,
      "Ġunus": 8862,
      "phone": 8863,
      "Ġign": 8864,
      "Ġsuggests": 8865,
      "Ġprepared": 8866,
      "Ġcoordin": 8867,
      "ĠNi": 8868,
      "Ġbiggest": 8869,
      "isations": 8870,
      "Ġappropri": 8871,
      "xts": 8872,
      "Ġheritage": 8873,
      "Discography": 8874,
      "Ġvary": 8875,
      "ancell": 8876,
      "atern": 8877,
      "leton": 8878,
      "ĠStev": 8879,
      "Ġcoverage": 8880,
      "Ġaspects": 8881,
      "ĠShip": 8882,
      "Ġformally": 8883,
      "Ang": 8884,
      "Ġbrick": 8885,
      "Donald": 8886,
      "tha": 8887,
      "Ġsuccessor": 8888,
      "Ġvessels": 8889,
      "ĠCapital": 8890,
      "December": 8891,
      "Ġpractices": 8892,
      "Ġbat": 8893,
      "anim": 8894,
      "ĠEvery": 8895,
      "Ġseed": 8896,
      "Ġsort": 8897,
      "aceae": 8898,
      "oked": 8899,
      "ĠTob": 8900,
      "ĠTheater": 8901,
      "Ġpoets": 8902,
      "ĠBroadway": 8903,
      "ĠStars": 8904,
      "hand": 8905,
      "ĠLiga": 8906,
      "inations": 8907,
      "ĠNigeria": 8908,
      "Mount": 8909,
      "ĠUpon": 8910,
      "ĠKum": 8911,
      "School": 8912,
      "ĠFinnish": 8913,
      "Ġdivor": 8914,
      "chang": 8915,
      "mosp": 8916,
      "ĠPierre": 8917,
      "EP": 8918,
      "Ġindu": 8919,
      "ristol": 8920,
      "Ġownership": 8921,
      "Ġwindow": 8922,
      "Ġcrowd": 8923,
      "Ġinterested": 8924,
      "Ġlanding": 8925,
      "Ġlinked": 8926,
      "Ġwindows": 8927,
      "erk": 8928,
      "ashed": 8929,
      "fare": 8930,
      "ĠAld": 8931,
      "Ġ54": 8932,
      "ĠLov": 8933,
      "Ġbanks": 8934,
      "Ġ1896": 8935,
      "Ġhur": 8936,
      "Ġdisappe": 8937,
      "ĠGuinea": 8938,
      "ĠMilan": 8939,
      "Ġdog": 8940,
      "Ġensure": 8941,
      "antine": 8942,
      "Ġreplacement": 8943,
      "hammad": 8944,
      "Ġmoth": 8945,
      "ĠCultural": 8946,
      "Ġveget": 8947,
      "ĠDelhi": 8948,
      "Ġagencies": 8949,
      "arma": 8950,
      "Ġrequirements": 8951,
      "Ġcrossing": 8952,
      "Ġrestaurant": 8953,
      "ĠJohnny": 8954,
      "ĠMotor": 8955,
      "Ġmanufacturing": 8956,
      "jab": 8957,
      "Ġweekly": 8958,
      "Ġfixed": 8959,
      "oi": 8960,
      "ĠFood": 8961,
      "Ġcolleges": 8962,
      "stad": 8963,
      "Ġrates": 8964,
      "Ġelectoral": 8965,
      "ricane": 8966,
      "uh": 8967,
      "ĠEston": 8968,
      "ĠNeg": 8969,
      "Ġfilmed": 8970,
      "ĠLimited": 8971,
      "Ġrecept": 8972,
      "%,": 8973,
      "uka": 8974,
      "ttps": 8975,
      "Ġextremely": 8976,
      "ĠBorough": 8977,
      "Ġpicture": 8978,
      "Ġadaptation": 8979,
      "Em": 8980,
      "ĠBaker": 8981,
      "ĠGib": 8982,
      "enberg": 8983,
      "ĠDJ": 8984,
      "Ġdescend": 8985,
      "NS": 8986,
      "mont": 8987,
      "break": 8988,
      "ĠElementary": 8989,
      "ĠIndians": 8990,
      "Ġhosts": 8991,
      "Ġdim": 8992,
      "Ġpopularity": 8993,
      "Ġdiagn": 8994,
      "ĠTower": 8995,
      "ĠĊĠ": 8996,
      "ĠSerge": 8997,
      "Ġclassified": 8998,
      "Ġtransition": 8999,
      "Ġwheel": 9000,
      "1963": 9001,
      "Ġclassic": 9002,
      "Ġmunicipalities": 9003,
      "hattan": 9004,
      "Ġcommemor": 9005,
      "Ġevolution": 9006,
      "ĠGary": 9007,
      "ĠGray": 9008,
      "original": 9009,
      "Ġaudio": 9010,
      "ĠDh": 9011,
      "Ġcovering": 9012,
      "ĠOnce": 9013,
      "Ġ1897": 9014,
      "Ġfrag": 9015,
      "Ġchannels": 9016,
      "ĠSign": 9017,
      "Ġ1895": 9018,
      "ĠVoiv": 9019,
      "Ġcanc": 9020,
      "1962": 9021,
      "Ġauthors": 9022,
      "Ġartistic": 9023,
      "ruption": 9024,
      "ĠOrganization": 9025,
      "Ġdepos": 9026,
      "ĠProm": 9027,
      "Ġflows": 9028,
      "Ġthousands": 9029,
      "Ġdifferences": 9030,
      "urers": 9031,
      "Ġexpert": 9032,
      "iya": 9033,
      "Ġprocesses": 9034,
      "Me": 9035,
      "November": 9036,
      "ĠNBA": 9037,
      "Act": 9038,
      "eria": 9039,
      "Ġaccompl": 9040,
      "ĠHas": 9041,
      "oples": 9042,
      "Ġrose": 9043,
      "athy": 9044,
      "enses": 9045,
      "Ġdaughters": 9046,
      "MC": 9047,
      "Ġpapers": 9048,
      "ĠIns": 9049,
      "Ġvert": 9050,
      "gie": 9051,
      "Ġchampionships": 9052,
      "ĠFact": 9053,
      "Ġoccupation": 9054,
      "ED": 9055,
      "ĠMess": 9056,
      "Mod": 9057,
      "oenix": 9058,
      "ls": 9059,
      "Ġendemic": 9060,
      "Season": 9061,
      "Ġmedals": 9062,
      "Ġcold": 9063,
      "ĠFr": 9064,
      "idency": 9065,
      "otype": 9066,
      "astrop": 9067,
      "Ġplane": 9068,
      "claimed": 9069,
      "ĠNova": 9070,
      "ĠJerusalem": 9071,
      "Top": 9072,
      "ML": 9073,
      "Ġcheck": 9074,
      "Ġrelative": 9075,
      "Ġchildhood": 9076,
      "mate": 9077,
      "Ġbit": 9078,
      "ĠParish": 9079,
      "Ġdanc": 9080,
      "iko": 9081,
      "ĠMong": 9082,
      "Ġtask": 9083,
      "RO": 9084,
      "Ġheads": 9085,
      "ĠWayne": 9086,
      "Ġsoundtrack": 9087,
      "Bus": 9088,
      "Ġtechnique": 9089,
      "Ġscheme": 9090,
      "Ġhistorians": 9091,
      "ĠMitchell": 9092,
      "ĠWW": 9093,
      "ĠHum": 9094,
      "ĠNevada": 9095,
      "bel": 9096,
      "ĠJason": 9097,
      "Ġpeaked": 9098,
      "Ġpoverty": 9099,
      "ĠMall": 9100,
      "istical": 9101,
      "essions": 9102,
      "Ġcounties": 9103,
      "ĠDemocrats": 9104,
      "cons": 9105,
      "ĠNation": 9106,
      "ĠRena": 9107,
      "Ġfiled": 9108,
      "Ġrecru": 9109,
      "ĠWarren": 9110,
      "oga": 9111,
      "Ġcup": 9112,
      "ĠRomanian": 9113,
      "Ġquestions": 9114,
      "Ġru": 9115,
      "Ġ56": 9116,
      "oustic": 9117,
      "Ġstruck": 9118,
      "ivan": 9119,
      "ĠChang": 9120,
      "ĠChallenge": 9121,
      "commun": 9122,
      "Honours": 9123,
      "ĠBeg": 9124,
      "ĠAlberta": 9125,
      "Post": 9126,
      "ĠStage": 9127,
      "Ġromantic": 9128,
      "othy": 9129,
      "rypt": 9130,
      "Ġfalls": 9131,
      "ĠTrad": 9132,
      "odeship": 9133,
      "Ġmonument": 9134,
      "forcement": 9135,
      "Ġassembly": 9136,
      "Current": 9137,
      "ĠFlore": 9138,
      "Ġstayed": 9139,
      "Ġorchestra": 9140,
      "Ġcapable": 9141,
      "ĠBenn": 9142,
      "Ġweak": 9143,
      "Ġid": 9144,
      "arked": 9145,
      "Ġlocomotives": 9146,
      "ĠNever": 9147,
      "alis": 9148,
      "ilia": 9149,
      "ĠMap": 9150,
      "Ġtied": 9151,
      "Ġassass": 9152,
      "Sim": 9153,
      "ĠAlaska": 9154,
      "ĠUnit": 9155,
      "apping": 9156,
      "ĠCaribbean": 9157,
      "ĠSalv": 9158,
      "ĠRangers": 9159,
      "ĠAssistant": 9160,
      "Ġstret": 9161,
      "ĠHawaii": 9162,
      "Ġsnow": 9163,
      "Ġflower": 9164,
      "Ġgene": 9165,
      "Ġago": 9166,
      "ĠSerbian": 9167,
      "Ġevening": 9168,
      "ĠFine": 9169,
      "Ġconduct": 9170,
      "ĠPhot": 9171,
      "ĠFleet": 9172,
      "ategy": 9173,
      "ĠMother": 9174,
      "Ġcards": 9175,
      "avi": 9176,
      "Ġnomination": 9177,
      "story": 9178,
      "Ġscholar": 9179,
      "hus": 9180,
      "fers": 9181,
      "Ġcomponents": 9182,
      "aja": 9183,
      "Ġ1860": 9184,
      "Ġlov": 9185,
      "Ġnations": 9186,
      "Ġsquadron": 9187,
      "ĠConstant": 9188,
      "ictions": 9189,
      "enson": 9190,
      "ĠBarry": 9191,
      "ĠRichmond": 9192,
      "Ġnote": 9193,
      "ĠAR": 9194,
      "Ġ53": 9195,
      "1961": 9196,
      "ĠYouTube": 9197,
      "Ġexpedition": 9198,
      "ĠEdition": 9199,
      "ushing": 9200,
      "Ġmovements": 9201,
      "ivia": 9202,
      "Ġflowers": 9203,
      "ĠVoivodeship": 9204,
      "ĠCher": 9205,
      "Red": 9206,
      "Ġencounter": 9207,
      "Ġopinion": 9208,
      "emale": 9209,
      "icon": 9210,
      "ĠFrid": 9211,
      "ĠSS": 9212,
      "ĠNorm": 9213,
      "ĠPeru": 9214,
      "ijing": 9215,
      "ĠClar": 9216,
      "Lou": 9217,
      "Ġstrategy": 9218,
      "ĠVel": 9219,
      "ĠCart": 9220,
      "Ġplate": 9221,
      "Ġeliminated": 9222,
      "MI": 9223,
      "ĠUg": 9224,
      "ĠBurg": 9225,
      "know": 9226,
      "ĠSongs": 9227,
      "amer": 9228,
      "rez": 9229,
      "soft": 9230,
      ".:": 9231,
      "Ġwor": 9232,
      "Defunct": 9233,
      "Ġcolspan": 9234,
      "Ġ120": 9235,
      "ĠDNA": 9236,
      "Ġrequires": 9237,
      "1930": 9238,
      "itations": 9239,
      "ĠVictorian": 9240,
      "ocument": 9241,
      "Ġartillery": 9242,
      "ĠBachelor": 9243,
      "Jos": 9244,
      "acht": 9245,
      "Ġappearing": 9246,
      "ĠLad": 9247,
      "ĠPolitical": 9248,
      "ĠFellow": 9249,
      "Ġinfrastructure": 9250,
      "ĠSaints": 9251,
      "iary": 9252,
      "ĠEug": 9253,
      "Ġmeets": 9254,
      "Ġmessage": 9255,
      "Ġsolution": 9256,
      "Ġaffairs": 9257,
      "Ġkingdom": 9258,
      "Ġroughly": 9259,
      "ĠBible": 9260,
      "Ġperfect": 9261,
      "ribed": 9262,
      "Ġeval": 9263,
      "Che": 9264,
      "Ġsoil": 9265,
      "rove": 9266,
      "anner": 9267,
      "ĠIan": 9268,
      "Ġcommit": 9269,
      "Ġeyes": 9270,
      "ega": 9271,
      "Ġdated": 9272,
      "Ag": 9273,
      "uzz": 9274,
      "wig": 9275,
      "Ġ1893": 9276,
      "ĠEss": 9277,
      "ju": 9278,
      "asp": 9279,
      "Tur": 9280,
      "ĠElectric": 9281,
      "Ġhip": 9282,
      "ĠKr": 9283,
      "Ġwithdraw": 9284,
      "Ġsurre": 9285,
      "Ġindigenous": 9286,
      "Ġalcoh": 9287,
      "card": 9288,
      "udden": 9289,
      "Ġstring": 9290,
      "Ġplus": 9291,
      "ĠAfghanistan": 9292,
      "ĠFalls": 9293,
      "Oper": 9294,
      "Ġforests": 9295,
      "feld": 9296,
      "Ġoffering": 9297,
      "Athlet": 9298,
      "incinn": 9299,
      "Ġsuicide": 9300,
      "ĠWindows": 9301,
      "celand": 9302,
      "isition": 9303,
      "Ġportrayed": 9304,
      "ovakia": 9305,
      "Ġperhaps": 9306,
      "ĠHindu": 9307,
      "inos": 9308,
      "ĠMans": 9309,
      "Ġtie": 9310,
      "ĠCase": 9311,
      "Organ": 9312,
      "ophone": 9313,
      "Ġrent": 9314,
      "Ġchapter": 9315,
      "Ġmental": 9316,
      "Ġwooden": 9317,
      "Ġmountains": 9318,
      "ĠStra": 9319,
      "NC": 9320,
      "Ġinstance": 9321,
      "ĠFitz": 9322,
      "ĠCou": 9323,
      "ĠHold": 9324,
      "Ġcredit": 9325,
      "1959": 9326,
      "ĠEgyptian": 9327,
      "udes": 9328,
      "ĠMind": 9329,
      "uez": 9330,
      "oom": 9331,
      "ĠAst": 9332,
      "aku": 9333,
      "ĠTele": 9334,
      "ĠPav": 9335,
      "atar": 9336,
      "Ġadding": 9337,
      "castle": 9338,
      "ĠPra": 9339,
      "ĠRAF": 9340,
      "ĠLanguage": 9341,
      "Gl": 9342,
      "Ġvolumes": 9343,
      "hered": 9344,
      "Ġboundary": 9345,
      "ĠLuther": 9346,
      "ĠJama": 9347,
      "DF": 9348,
      "ĠHunter": 9349,
      "Ġoutput": 9350,
      "ĠSteel": 9351,
      "ĠMean": 9352,
      "Ġterritories": 9353,
      "ĠProtest": 9354,
      "ĠMonte": 9355,
      "ĠVas": 9356,
      "ountry": 9357,
      "Place": 9358,
      "ĠHig": 9359,
      "ework": 9360,
      "rity": 9361,
      "Flora": 9362,
      "Ġ1889": 9363,
      "ĠHeb": 9364,
      "archy": 9365,
      "eed": 9366,
      "Ġappointment": 9367,
      "Station": 9368,
      "Ġsubsidi": 9369,
      "Ġtemporary": 9370,
      "Ġsax": 9371,
      "ĠStorm": 9372,
      "1958": 9373,
      "ĠAdmiral": 9374,
      "Ġmac": 9375,
      "Ġreplacing": 9376,
      "ĠCharlie": 9377,
      "Ġjourney": 9378,
      "Ġpoems": 9379,
      "udson": 9380,
      "Ġcelebrated": 9381,
      "Ġpenalty": 9382,
      "ĠColombia": 9383,
      "ĠAndy": 9384,
      "Air": 9385,
      "ĠVancouver": 9386,
      "geon": 9387,
      "ĠMi": 9388,
      "uru": 9389,
      "Ġcorrect": 9390,
[...]
